#pragma once

#include <stdint.h>
#include "model_config.h"

// XNOR-Net: binary weights + binary activations

// --- Encoder ---
// Binary packed: 1 bit per weight, 8 per byte. 0=-scale, 1=+scale
static const uint8_t enc_fc1_weight[32768] = {
    0xad, 0x01, 0x7b, 0x01, 0xa5, 0x00, 0x48, 0x0f, 0xab, 0xdd, 0x97, 0x37, 0x34, 0xfa, 0xa8, 0xfb, 0x1e, 0xad, 0x77, 0x40, 0x28, 0x1d, 0xd7, 0x50, 0x42, 0x4d, 0xd1, 0xde, 0xd9, 0x36, 0xff, 0xce, 0xae, 0xce, 0x52, 0x25, 0xc3, 0xbb, 0x2c, 0x69, 0x59, 0x11, 0x3f, 0x71, 0xe8, 0xce, 0x64, 0xad, 0x84, 0xdd, 0x33, 0xbc, 0xb4, 0xae, 0x64, 0x40, 0xfe, 0x02, 0x3f, 0x00, 0xff, 0x00, 0xff, 0x00, 0xa9, 0xc3, 0xb3, 0x6c, 0xaf, 0xea, 0xd3, 0xc3, 0x05, 0x2e, 0xd0, 0xed, 0x36, 0x4c, 0x7b, 0x6b, 0xb6, 0x32, 0xdd, 0x44, 0x9d, 0x8a, 0x88, 0xfa, 0x80, 0xee, 0x80, 0xfe, 0x00, 0xfa, 0x00, 0xf9, 0x83, 0x34, 0x3b, 0x70, 0x7f, 0x6f, 0xc6, 0xdf, 0x73, 0xa1, 0xc8, 0x3b, 0xbe, 0xe9, 0x97, 0x44, 0x77, 0xcb, 0x47, 0xce, 0x1b, 0xbb, 0xc0, 0x96, 0x80, 0x7f, 0x80, 0x0f, 0x80, 0x2a, 0xc0, 0xef, 0xf0, 0x30, 0xf0, 0x15, 0x68, 0x84, 0xb8, 0x35, 0xc0, 0x11, 0xe2, 0x61, 0xb5, 0x28, 0xe7, 0x1d, 0x23, 0x75, 0x82, 0x9f, 0xc2, 0x67, 0x14, 0xef, 0x94, 0x80, 0x36, 0x2b, 0xbb, 0x01, 0x7f, 0x00, 0xd2, 0x01, 0xb9, 0x03, 0xe5, 0x05, 0x1b, 0x0e, 0x66, 0x0d, 0x9f, 0xf5, 0x51, 0xe5, 0x4a, 0xfd, 0xfd, 0x94, 0x38, 0x97, 0xff, 0x30, 0x74, 0xc4, 0xe1, 0x9f, 0xa5, 0xd3, 0x24, 0xf8, 0xfd, 0xcc, 0x78, 0xdd, 0x90, 0x75, 0xb8, 0x28, 0xa8, 0x21, 0xf0, 0x6e, 0xca, 0xaa, 0x4a, 0xd8, 0xe9, 0xd0, 0x4d, 0xeb, 0x9f, 0xe9, 0x4f, 0xf8, 0xe2, 0xe3, 0x8b, 0x9e, 0xab, 0x09, 0xb2, 0x01, 0xe5, 0x1a, 0x02, 0xb1, 0x03, 0xe0, 0x78, 0x39, 0x62, 0x23, 0x5f, 0x7f, 0x6f, 0x1e, 0x3b, 0x8f, 0x4f, 0xfd, 0x1f, 0x10, 0x87, 0x83, 0xc7, 0x8c, 0x07, 0xfd, 0xe5, 0x1b, 0xcb, 0xd3, 0x03, 0x42, 0x7c, 0x3e, 0x94, 0x15, 0x77, 0x5c, 0x74, 0x68, 0x93, 0x81, 0x6f, 0x3b, 0x20, 0xbb, 0x80, 0xa6, 0x59, 0x7e, 0xff, 0x16, 0x8f, 0x60, 0xbf, 0x44, 0xbf, 0x00, 0x44, 0x02, 0x44, 0x02, 0xf1, 0x02, 0x50, 0x01, 0x3f, 0x0d, 0xbf, 0x0f, 0x17, 0x1f, 0x54, 0x0f, 0xad, 0x1d, 0x86, 0x6c, 0xb6, 0xd1, 0x87, 0x7f, 0xfd, 0xe9, 0x5d, 0xe1, 0x6a, 0x9a, 0xa5, 0x86, 0xbe, 0xec, 0xc4, 0x6f, 0x77, 0x6f, 0x1b, 0xcd, 0xff, 0xb5, 0x7f, 0xcf, 0xff, 0xe0, 0x4b, 0xe3, 0xef, 0x97, 0x47, 0x36, 0x52, 0x6d, 0xdc, 0x49, 0x19, 0x6c, 0x49, 0x04, 0x15, 0x08, 0x22, 0x60, 0x9a, 0x81, 0x3f, 0x10, 0xff, 0x13, 0xff, 0x12, 0xbf, 0x01, 0xcf, 0x02, 0x07, 0x04, 0x6d, 0x0a, 0x96, 0xbf, 0x54, 0xb5, 0xc8, 0xdf, 0xe6, 0x20, 0x06, 0xf8, 0xf7, 0x09, 0x0d, 0x33, 0xe5, 0xc6, 0xf7, 0xb3, 0x21, 0xa5, 0xa8, 0xce, 0x06, 0x71, 0x04, 0xb0, 0x24, 0xa8, 0xb8, 0x8b, 0xcf, 0x31, 0x9a, 0x93, 0xe9, 0x4e, 0x04, 0x6c, 0x44, 0x62, 0x44, 0x5a, 0x8f, 0x07, 0x93, 0x9c, 0x1f, 0xa5, 0x7f, 0x21, 0x3f, 0xbf, 0x1f, 0x90, 0x3f, 0x88, 0x93, 0xfd, 0x1c, 0xfe, 0x59, 0xfe, 0xe8, 0xf5, 0x1c, 0xe0, 0x52, 0x61, 0x18, 0xc0, 0x3e, 0x50, 0x3b, 0x48, 0xcc, 0x70, 0x38, 0xd0, 0x01, 0x22, 0xf4, 0x5c, 0xd5, 0x75, 0x5b, 0xfd, 0xd7, 0xff, 0xe0, 0x35, 0xd0, 0x6c, 0xc0, 0x59, 0xf0, 0xe8, 0x38, 0x27, 0x74, 0x34, 0x96, 0x81, 0x7f, 0xf3, 0x65, 0xee, 0x23, 0xdd, 0x06, 0xd9, 0x5c, 0x1d, 0xe2, 0x14, 0xed, 0x92, 0xb6, 0xda, 0x59, 0x53, 0xaa, 0x65, 0x6f, 0x36, 0x3b, 0xc7, 0x84, 0x62, 0x28, 0x6f, 0x2e, 0x79, 0x6b, 0x5c, 0xfe, 0x61, 0xd3, 0x93, 0xbd, 0xed, 0xa0, 0x6a, 0xc0, 0xb0, 0xc0, 0x24, 0xe0, 0x7e, 0xe0, 0x5e, 0xc0, 0x93, 0x34, 0x3a, 0x7b, 0x0f, 0x82, 0x47, 0xcb, 0xd9, 0x4b, 0xf2, 0x55, 0xb9, 0x7f, 0x29, 0xf0, 0xe4, 0xec, 0x51, 0xbb, 0x9b, 0x81, 0x63, 0x54, 0xf0, 0x40, 0x67, 0x80, 0x5d, 0x00, 0x3f, 0x00, 0xb2, 0xff, 0x50, 0xe7, 0x0a, 0xf5, 0x09, 0xaf, 0x6b, 0xd1, 0xd4, 0x47, 0x56, 0xac, 0xa3, 0xdd, 0x05, 0x67, 0xc5, 0xbf, 0x91, 0xff, 0x43, 0xfa, 0xc5, 0xa1, 0x12, 0xa8, 0xe3, 0x80, 0x08, 0x04, 0x2d, 0x50, 0x14, 0xa0, 0x14, 0x30, 0x0c, 0xba, 0x40, 0x22, 0x11, 0xde, 0x0b, 0x36, 0x41, 0xa7, 0xd4, 0xfb, 0x4e, 0xe7, 0xcd, 0x4f, 0xff, 0xff, 0x9a, 0x15, 0xce, 0xff, 0xde, 0xb7, 0xff, 0x5f, 0xeb, 0x38, 0xb6, 0xbb, 0x1d, 0x51, 0xf4, 0x9a, 0x95, 0xd6, 0x9c, 0xfe, 0x80, 0x87, 0xd7, 0x43, 0x4d, 0x88, 0xf6, 0x45, 0xdf, 0x8e, 0xb6, 0xeb, 0x84, 0xdf, 0x01, 0xd7, 0x00, 0x5f, 0x01, 0xff, 0x01, 0xfb, 0x31, 0x67, 0xfd, 0xc9, 0x15, 0xa0, 0xd0, 0x9f, 0x4f, 0x6e, 0xfe, 0x35, 0x30, 0xb9, 0xf4, 0x6f, 0x4f, 0xac, 0x93, 0x18, 0x28, 0xd0, 0xdf, 0xe0, 0x52, 0xa0, 0x57, 0xe0, 0xf5, 0xa0, 0xb2, 0xfe, 0xa7, 0x29, 0xad, 0xe1, 0xdc, 0x55, 0x99, 0x1d, 0x2c, 0x4a, 0xc3, 0xea, 0x7c, 0xb7, 0xa3, 0x9b, 0xbd, 0xc4, 0xde, 0x26, 0xc5, 0x95, 0x05, 0xf5, 0x03, 0xad, 0x00, 0xd2, 0x01, 0xef, 0x00, 0x01, 0xe8, 0xc8, 0x3c, 0xae, 0xb5, 0x1b, 0xf5, 0xb1, 0x64, 0x25, 0x9c, 0x06, 0xf7, 0x1e, 0x1a, 0x24, 0xdf, 0x8c, 0x39, 0x03, 0x7a, 0xb1, 0x78, 0x4c, 0xa6, 0x08, 0xce, 0x80, 0x9f, 0x8a, 0xfe, 0x32, 0x66, 0xf1, 0xa7, 0x2b, 0xb2, 0x27, 0x57, 0x59, 0xa9, 0x18, 0xe7, 0x46, 0xd3, 0xf5, 0x4a, 0x7d, 0x34, 0xc7, 0xd6, 0xd7, 0x99, 0xa8, 0xc7, 0x80, 0xe8, 0x00, 0xde, 0x00, 0xf0, 0x00, 0xff, 0x80, 0xcc, 0x20, 0x45, 0x10, 0x5b, 0xa5, 0xfb, 0xbf, 0x8b, 0xaa, 0x70, 0xf9, 0x4a, 0x6f, 0xa4, 0x92, 0xe7, 0xeb, 0x96, 0x02, 0x18, 0x09, 0xfb, 0xde, 0x77, 0xf7, 0x22, 0x0f, 0x89, 0xe9, 0x4a, 0x80, 0x44, 0xb8, 0xba, 0xb4, 0xc4, 0xb8, 0x14, 0x8c, 0x1a, 0xcb, 0xeb, 0xce, 0x34, 0x55, 0xb0, 0x00, 0x1b, 0x0d, 0x10, 0xd1, 0x09, 0xf2, 0xbf, 0xf8, 0x9f, 0xe3, 0x17, 0xe4, 0x2f, 0xe0, 0x0f, 0xb0, 0x38, 0x50, 0x89, 0xf0, 0x56, 0xc0, 0xad, 0x6b, 0x3c, 0x7b, 0x40, 0xff, 0x60, 0x7e, 0xba, 0xff, 0x61, 0x7b, 0xf1, 0xfc, 0x55, 0xe0, 0x58, 0x44, 0x1f, 0x80, 0x65, 0x00, 0xb4, 0x00, 0x11, 0xc0, 0x8a, 0xc0, 0x72, 0x00, 0xcf, 0xd8, 0x34, 0x98, 0x86, 0xae, 0x75, 0x57, 0xf3, 0x3e, 0xc3, 0x46, 0x95, 0xd4, 0xc5, 0x45, 0xb6, 0x11, 0xe6, 0x7c, 0xf8, 0x5d, 0xfc, 0x33, 0xff, 0xbf, 0xfb, 0xeb, 0xe7, 0xae, 0x7f, 0xa9, 0x66, 0x3b, 0xa1, 0xdb, 0xca, 0x06, 0xdf, 0xed, 0xdd, 0x6f, 0xe6, 0x34, 0xe0, 0x9d, 0x3f, 0x88, 0x1f, 0xb7, 0x16, 0x69, 0x03, 0x8e, 0x01, 0x56, 0x03, 0xf7, 0x03, 0x95, 0xfd, 0x36, 0xf9, 0xed, 0xfb, 0x12, 0x90, 0x79, 0x29, 0x8c, 0x0e, 0x95, 0x1a, 0xf9, 0x51, 0xb2, 0xef, 0x0d, 0x69, 0x3f, 0xd7, 0x96, 0xe8, 0x29, 0x4c, 0x18, 0xdc, 0x00, 0x48, 0x00, 0xac, 0xe5, 0xfc, 0x67, 0x4e, 0xee, 0x68, 0xcb, 0x73, 0xb9, 0xb1, 0x56, 0x4d, 0x33, 0x57, 0xbd, 0xfc, 0x67, 0xbb, 0x5b, 0xb9, 0xa4, 0xf3, 0xdc, 0x92, 0xbb, 0x03, 0xf7, 0x03, 0x84, 0x00, 0x77, 0x00, 0xaa, 0xe9, 0xdf, 0x3c, 0xd1, 0xca, 0x59, 0x87, 0x9a, 0x7c, 0x4f, 0x34, 0xf1, 0xe9, 0x8f, 0x92, 0xae, 0xe7, 0x58, 0x5d, 0x9d, 0xdf, 0xce, 0x4b, 0x80, 0x03, 0xf0, 0x0f, 0xc0, 0x07, 0xc0, 0x07, 0xf0, 0x0b, 0xe5, 0x43, 0x29, 0x0b, 0xc8, 0x11, 0xec, 0x02, 0x5a, 0x2d, 0xf7, 0x5f, 0xc0, 0x7a, 0xc8, 0x32, 0xf4, 0x9f, 0xb1, 0xea, 0x89, 0x06, 0xeb, 0x2b, 0x75, 0x0c, 0x5f, 0x80, 0xff, 0x00, 0x82, 0xdf, 0x5c, 0x5b, 0x4f, 0xb5, 0xae, 0xc7, 0x47, 0xce, 0x3b, 0xf1, 0xbd, 0x2f, 0xeb, 0xf9, 0x6e, 0x35, 0xaf, 0xe4, 0x2f, 0xce, 0x87, 0xab, 0xc1, 0x27, 0x00, 0xdf, 0x00, 0x73, 0x00, 0xf7, 0x9b, 0xfa, 0xdf, 0xc6, 0xd9, 0xb9, 0x63, 0x8a, 0xe3, 0x3d, 0x41, 0x8f, 0xfa, 0xa0, 0x9f, 0xf8, 0x1e, 0xfd, 0x3c, 0xfd, 0x7b, 0xff, 0x90, 0xf9, 0xf4, 0x60, 0x3f, 0x00, 0x38, 0x00, 0xb1, 0x00, 0xd5, 0x9e, 0x31, 0xad, 0xd6, 0x21, 0x62, 0xfa, 0xd9, 0x8d, 0x1f, 0x96, 0x8b, 0x99, 0x7a, 0x78, 0x6f, 0x76, 0xa4, 0x85, 0xc8, 0x1f, 0xc8, 0x4c, 0xc0, 0xea, 0x80, 0x07, 0x80, 0x6b, 0x80, 0xf1, 0xf8, 0x41, 0xdb, 0x20, 0x8a, 0x42, 0xd2, 0x80, 0xc3, 0x02, 0x7d, 0x42, 0xe1, 0xf3, 0xd5, 0x23, 0xf1, 0x2a, 0x3f, 0xcf, 0xef, 0xff, 0x65, 0x6c, 0x5d, 0x48, 0x0f, 0x0f, 0xbd, 0xd0, 0x7f, 0x00, 0x94, 0x2c, 0x52, 0xb5, 0x23, 0x80, 0x34, 0x57, 0xe3, 0x4c, 0xe5, 0xa8, 0x39, 0x6d, 0xa0, 0x08, 0x40, 0x1a, 0x2c, 0xb6, 0x3b, 0x6a, 0x1f, 0x8b, 0x3f, 0x58, 0x3f, 0x0e, 0x7f, 0x86, 0x3f, 0xb4, 0xf7, 0xcc, 0x78, 0x7b, 0xb5, 0xf4, 0x50, 0x89, 0x4b, 0x8f, 0x1d, 0xdd, 0xab, 0xbb, 0x5f, 0xc5, 0xbf, 0xac, 0x1f, 0x2d, 0x7f, 0x4f, 0x17, 0xe7, 0x06, 0xf7, 0x00, 0xe0, 0x00, 0x28, 0x00, 0xfa, 0xfe, 0xf0, 0x82, 0x26, 0xa9, 0xad, 0x23, 0xef, 0x9e, 0x11, 0xeb, 0xcc, 0x90, 0x99, 0xed, 0xdb, 0x6f, 0x96, 0x8b, 0x1f, 0x0e, 0x8c, 0x0d, 0x60, 0x00, 0xec, 0x07, 0xfe, 0x01, 0xfc, 0x0e, 0xfe, 0xfa, 0xc7, 0xd9, 0xcf, 0xda, 0xcf, 0xd6, 0x63, 0x9c, 0x6b, 0xa7, 0xce, 0xf4, 0x27, 0x06, 0xeb, 0x48, 0x37, 0x12, 0x08, 0x88, 0x5f, 0xbd, 0xf9, 0x88, 0xab, 0x00, 0x42, 0x04, 0x00, 0x04, 0x01, 0xa5, 0x86, 0x04, 0xd6, 0x63, 0x89, 0xba, 0x8d, 0x2a, 0xc2, 0x94, 0x53, 0xa7, 0x3e, 0x81, 0x45, 0x30, 0x69, 0x9c, 0x6a, 0x61, 0x20, 0x7f, 0x4c, 0xff, 0xc9, 0x7f, 0x6f, 0xff, 0xa4, 0x7f, 0x21, 0xd0, 0x01, 0xa0, 0x04, 0x7d, 0x09, 0xc5, 0x0a, 0xe0, 0x52, 0x20, 0x14, 0x39, 0x38, 0xfb, 0x0f, 0x99, 0x47, 0xc5, 0xb1, 0xc3, 0xdd, 0x08, 0x2d, 0xd5, 0x29, 0x45, 0x7f, 0x7b, 0xdd, 0x6f, 0xfe, 0x7f, 0x0d, 0xef, 0x02, 0xba, 0x65, 0xfb, 0x28, 0xb3, 0x86, 0xcf, 0xea, 0x6e, 0x49, 0x7b, 0x33, 0x68, 0x01, 0xc6, 0x03, 0xe7, 0x04, 0x74, 0x9d, 0x2d, 0xd4, 0x2a, 0x65, 0x85, 0x08, 0x4d, 0x03, 0x50, 0x0f, 0xa7, 0xac, 0xa0, 0x63, 0x50, 0x5e, 0x62, 0x59, 0x89, 0xcd, 0xf9, 0x3b, 0xf5, 0xca, 0xb4, 0xb6, 0x39, 0xff, 0x20, 0xfd, 0x6a, 0xef, 0x48, 0xff, 0x06, 0xf5, 0xe4, 0xdb, 0xbb, 0xfe, 0x55, 0x20, 0x29, 0x52, 0xe2, 0x67, 0x1b, 0x27, 0x92, 0xcc, 0xc4, 0x28, 0x31, 0xc9, 0x60, 0x27, 0x0f, 0x62, 0x97, 0x57, 0xaf, 0x30, 0x9f, 0xad, 0x8f, 0x24, 0x1f, 0xae, 0x0f, 0x42, 0x9f, 0x1c, 0xb5, 0xce, 0x6e, 0x63, 0x41, 0x75, 0xee, 0xaa, 0xa7, 0x5c, 0x05, 0x83, 0x7c, 0x76, 0xd8, 0x91, 0xee, 0x5f, 0xed, 0xe6, 0x0e, 0x34, 0x0d, 0xb0, 0x03, 0x42, 0x03, 0x78, 0x07, 0x9c, 0x07, 0x78, 0x1d, 0x06, 0xcd, 0x01, 0xe4, 0x9e, 0x8a, 0x0f, 0x33, 0xe3, 0x33, 0xf8, 0xde, 0xfa, 0xa8, 0xf0, 0x35, 0xf7, 0xd3, 0xd9, 0x54, 0xf8, 0x99, 0x59, 0x9e, 0xcb, 0x0c, 0x13, 0x17, 0xc3, 0x57, 0x37, 0xbe, 0xd9, 0xf2, 0x1d, 0x3b, 0x9c, 0x6a, 0x78, 0x91, 0xd0, 0xc9, 0x87, 0x67, 0xcd, 0x7c, 0x76, 0x13, 0xb5, 0xab, 0x7f, 0xb9, 0xa2, 0x1b, 0x04, 0xc9, 0x0f, 0xa6, 0x01, 0xe9, 0x00, 0xef, 0x00, 0x7d, 0xfd, 0x73, 0xe5, 0x48, 0xb9, 0x9d, 0x87, 0x09, 0xaf, 0x73, 0x22, 0xf7, 0xfe, 0x2f, 0x41, 0xc9, 0xfd, 0xf1, 0xac, 0x68, 0xc1, 0x60, 0xf9, 0xe0, 0x1c, 0xe0, 0x76, 0xc0, 0x2f, 0x80, 0x1a, 0x00, 0x3b, 0xfb, 0xfb, 0x22, 0x16, 0x7e, 0x80, 0x16, 0xe5, 0x50, 0x5a, 0xba, 0x8f, 0x7d, 0x60, 0x77, 0x36, 0x91, 0xf8, 0x83, 0x37, 0x40, 0x16, 0x00, 0x18, 0xc0, 0x06, 0x80, 0x97, 0x00, 0x8f, 0xc0, 0x03, 0xc0, 0x09, 0x02, 0x00, 0xe8, 0x25, 0x2a, 0x16, 0xe8, 0x5c, 0xd2, 0x49, 0xdd, 0x17, 0x15, 0x0d, 0xd5, 0xf5, 0xb1, 0x9b, 0x81, 0x1a, 0x73, 0xf7, 0x53, 0xf9, 0x5d, 0xef, 0xab, 0xf3, 0xac, 0x24, 0x4a, 0xdb, 0x99, 0x10, 0x51, 0xa8, 0x7c, 0x5e, 0x13, 0x3b, 0xc1, 0x8d, 0x6b, 0x13, 0x64, 0x05, 0x12, 0xdb, 0x12, 0x94, 0x5f, 0xd8, 0x3f, 0xe5, 0xbf, 0xb5, 0x7f, 0xa1, 0xbf, 0x54, 0x3d, 0xb9, 0xad, 0x7d, 0xa9, 0x99, 0xed, 0x4a, 0x22, 0xb3, 0x6d, 0xd6, 0xa5, 0x22, 0xda, 0x5b, 0x35, 0xbc, 0x6b, 0xfd, 0x57, 0xbe, 0x7f, 0x00, 0x0f, 0xc0, 0x1b, 0x00, 0x0b, 0x00, 0x0b, 0x00, 0xbf, 0x8f, 0xb0, 0xc5, 0x57, 0xe5, 0xa7, 0x6c, 0xc9, 0xe4, 0x81, 0x5e, 0x7d, 0x4b, 0xaa, 0xb5, 0x6e, 0xd2, 0x76, 0x17, 0x31, 0xda, 0x5f, 0x6d, 0x12, 0xfc, 0x0f, 0xb0, 0x03, 0xc0, 0x03, 0x80, 0xe4, 0x3b, 0xfe, 0xf8, 0x35, 0xbd, 0x46, 0x89, 0x19, 0x1d, 0xb6, 0x6e, 0x7b, 0xfb, 0x67, 0x12, 0xe1, 0xa0, 0x8f, 0x7b, 0x78, 0xe7, 0x88, 0xcb, 0x40, 0x1f, 0xe0, 0xd6, 0xc0, 0x19, 0x40, 0xd3, 0x9a, 0x4b, 0x6f, 0x77, 0xce, 0x89, 0xff, 0xb9, 0x9e, 0xc4, 0x86, 0x8e, 0x98, 0x3c, 0x88, 0x79, 0x00, 0x18, 0x10, 0x04, 0x48, 0x05, 0x64, 0x18, 0x12, 0x10, 0xbf, 0xd9, 0xbf, 0x21, 0xbf, 0x4a, 0x4a, 0xfe, 0x8d, 0xfd, 0x07, 0x7b, 0x8e, 0xdd, 0xfc, 0x77, 0x31, 0x5b, 0x0f, 0x8c, 0x0c, 0x98, 0x8a, 0x40, 0x85, 0x28, 0x80, 0x9e, 0xa8, 0xed, 0xd4, 0x49, 0xe1, 0x6a, 0x00, 0xb6, 0x84, 0x06, 0x34, 0x23, 0xa5, 0x03, 0x25, 0x0f, 0xaf, 0xc2, 0x28, 0xe3, 0x71, 0x76, 0xd4, 0x7e, 0x1c, 0x28, 0x5b, 0x9c, 0xa4, 0x31, 0x13, 0x16, 0xc7, 0x4b, 0xff, 0x5c, 0x1f, 0x24, 0x5f, 0x1c, 0x7f, 0xea, 0x25, 0xe2, 0xe0, 0xf2, 0x5d, 0xfc, 0x41, 0xf4, 0x6f, 0xfb, 0xbf, 0xf3, 0x80, 0x48, 0x40, 0xe7, 0x00, 0x0d, 0x80, 0x70, 0x01, 0x1f, 0xcd, 0x20, 0xfc, 0x27, 0x1f, 0x9e, 0x4f, 0x2c, 0x7f, 0xb4, 0x7a, 0x56, 0xa6, 0xf9, 0x2d, 0x8b, 0x45, 0xb5, 0x76, 0x5a, 0xb1, 0xdc, 0x8b, 0x43, 0xf7, 0x0f, 0x1a, 0x0d, 0x4c, 0x17, 0x48, 0x1a, 0xbe, 0x00, 0x84, 0x86, 0x7f, 0xdf, 0xfd, 0xef, 0xff, 0xbf, 0xeb, 0x7a, 0xe1, 0x01, 0xc1, 0x2d, 0x90, 0x0c, 0x86, 0x28, 0x25, 0x3f, 0x6f, 0x01, 0x3f, 0x2f, 0xdf, 0x8e, 0xff, 0xcc, 0xff, 0xbd, 0xd5, 0x75, 0xc8, 0x83, 0x30, 0xb0, 0x80, 0xbe, 0x00, 0x57, 0x8f, 0x34, 0xb7, 0x18, 0x67, 0xe9, 0x57, 0x67, 0x19, 0xe1, 0x1e, 0x79, 0x2a, 0x3d, 0xdc, 0x44, 0xa0, 0x31, 0x2f, 0x40, 0xf0, 0x49, 0x21, 0x0a, 0x2c, 0x01, 0x5f, 0x80, 0xef, 0x43, 0x7f, 0x01, 0x97, 0xc1, 0xfb, 0x76, 0xe2, 0x17, 0x67, 0xac, 0x30, 0x80, 0x50, 0xed, 0x10, 0x3b, 0x78, 0x99, 0xb0, 0x3d, 0x3c, 0x04, 0xf8, 0xea, 0x5d, 0x8a, 0xbe, 0x38, 0x5a, 0xfc, 0x0c, 0x64, 0xab, 0x0d, 0xf1, 0xc2, 0x85, 0x14, 0x62, 0xe5, 0x5f, 0x5a, 0x80, 0x5c, 0x7c, 0x4f, 0x76, 0x15, 0xf4, 0x02, 0x11, 0xe8, 0x05, 0x2e, 0x35, 0xf0, 0x0f, 0xf8, 0x1f, 0xfc, 0x0f, 0xf3, 0xc7, 0xfe, 0x05, 0xfc, 0xe4, 0x1f, 0x6c, 0x1b, 0x64, 0x55, 0x09, 0x0b, 0x50, 0x9f, 0xb9, 0x46, 0xa1, 0xbf, 0x71, 0xd7, 0xd2, 0xce, 0x66, 0xff, 0xed, 0xec, 0xea, 0xaf, 0xd8, 0xb3, 0x0c, 0x4c, 0x84, 0x00, 0x20, 0x84, 0xc7, 0xf2, 0xb7, 0xf8, 0xf1, 0xf9, 0xb9, 0xf9, 0xd0, 0xf9, 0x9d, 0xfc, 0x0a, 0x10, 0x6f, 0xd1, 0x79, 0x5c, 0x2c, 0x27, 0xdb, 0xba, 0xb5, 0xef, 0xd2, 0x10, 0xe8, 0xd9, 0x00, 0x6f, 0x00, 0x4d, 0x60, 0xa4, 0xfe, 0xa0, 0x43, 0xd0, 0x65, 0xaf, 0xe1, 0x40, 0x95, 0xf3, 0xcb, 0x93, 0xb2, 0x44, 0x98, 0xf8, 0x5a, 0xf9, 0xbd, 0xec, 0xc2, 0xf1, 0xc6, 0xf4, 0x39, 0xf2, 0x1c, 0xfa, 0x24, 0xe0, 0x50, 0x34, 0xc0, 0x85, 0xa0, 0xd4, 0x7d, 0x06, 0x65, 0xf1, 0x99, 0x5c, 0xcf, 0x95, 0x09, 0x10, 0x94, 0x4f, 0xb8, 0x44, 0x63, 0x44, 0x9e, 0xfb, 0x27, 0xfe, 0x22, 0xfe, 0x86, 0xff, 0xc9, 0xff, 0x2c, 0xb8, 0x8e, 0xf0, 0x3e, 0x54, 0x0f, 0x10, 0x88, 0xc9, 0x30, 0xe0, 0xeb, 0x5d, 0x6c, 0x9c, 0xbb, 0xa8, 0x5f, 0x5a, 0xbf, 0x86, 0xff, 0xe8, 0x7f, 0x18, 0x1f, 0xed, 0xff, 0xbc, 0x3f, 0xce, 0x92, 0x59, 0xcd, 0x15, 0x3c, 0xca, 0x02, 0xa2, 0xd1, 0x7b, 0xdd, 0x2d, 0x0b, 0x7a, 0xb9, 0x84, 0x18, 0xc0, 0x6f, 0x45, 0x80, 0xbf, 0xf9, 0x1f, 0xd0, 0xa7, 0xd0, 0x1f, 0xe0, 0x3f, 0xe0, 0x3f, 0x5f, 0xd9, 0x0f, 0xe3, 0xf3, 0x56, 0x13, 0x26, 0x93, 0xaf, 0xe6, 0x34, 0xdc, 0xd4, 0x10, 0xc0, 0xc2, 0x9d, 0xff, 0xbd, 0xbe, 0xae, 0xd9, 0xc4, 0x10, 0x49, 0x0f, 0xa0, 0x0b, 0x00, 0x06, 0x00, 0x40, 0x5a, 0xd0, 0x27, 0x90, 0x35, 0x30, 0xfa, 0xfd, 0x48, 0xef, 0xc8, 0xef, 0x3d, 0x7f, 0x5d, 0x5f, 0xc8, 0xdf, 0xa0, 0x4f, 0xd7, 0x06, 0x7f, 0x3b, 0x03, 0x90, 0xbd, 0x49, 0xf3, 0xbb, 0x50, 0xd8, 0xdf, 0x80, 0xad, 0xf8, 0xe0, 0xb8, 0x52, 0xf8, 0x1e, 0xd8, 0x7d, 0x30, 0xda, 0x24, 0x95, 0x7d, 0xe3, 0x30, 0xd6, 0xfd, 0xf4, 0x7f, 0x0f, 0xfc, 0x37, 0x39, 0xb2, 0xb4, 0xf2, 0x1b, 0xd1, 0xef, 0xc9, 0xc3, 0xac, 0x74, 0xd5, 0x67, 0x3e, 0x13, 0xda, 0xbd, 0x4f, 0x3c, 0x0b, 0x91, 0x05, 0x77, 0x0c, 0x26, 0x07, 0x4d, 0x07, 0x0d, 0x0f, 0xe9, 0x5f, 0xd3, 0x7f, 0xa5, 0xbf, 0xe7, 0xc7, 0xf0, 0xf0, 0xe0, 0x6d, 0xb0, 0x98, 0xf0, 0x5c, 0x00, 0x17, 0xbe, 0x32, 0xdb, 0xe1, 0x4f, 0xef, 0x0f, 0xbd, 0xdf, 0x81, 0xb7, 0x39, 0x07, 0x1e, 0x27, 0xb3, 0xcf, 0xa4, 0xc9, 0xe9, 0xeb, 0xb3, 0x6f, 0xe7, 0xff, 0xd6, 0x35, 0xff, 0xfd, 0x61, 0x5a, 0xc7, 0x24, 0xd6, 0x1c, 0x5e, 0x07, 0x2c, 0x02, 0x4c, 0x2e, 0x11, 0xc0, 0x70, 0x42, 0x24, 0xf0, 0x43, 0x70, 0x19, 0x00, 0x4b, 0x00, 0x45, 0x9b, 0x28, 0x19, 0x56, 0x90, 0xa3, 0xd8, 0x14, 0xb1, 0x7d, 0x5d, 0xa9, 0x42, 0x42, 0xbe, 0x72, 0x10, 0x86, 0xa6, 0x23, 0x8d, 0x96, 0xc6, 0x0f, 0xc1, 0xaf, 0xe2, 0x1f, 0xf1, 0xaf, 0xe6, 0x1f, 0x09, 0xc5, 0xd2, 0xcd, 0xbf, 0xef, 0x5f, 0xe9, 0xb6, 0xc8, 0x69, 0xe5, 0xa0, 0xe7, 0xa0, 0xa7, 0x40, 0x27, 0xc0, 0x62, 0xe0, 0xb6, 0x6e, 0xda, 0xde, 0x05, 0x1f, 0xeb, 0x4f, 0xee, 0xe6, 0xc5, 0xb3, 0xe5, 0x7a, 0x1d, 0x08, 0x4c, 0xa7, 0x85, 0xa1, 0x73, 0x55, 0x9c, 0xef, 0xf1, 0xb3, 0xfc, 0x5a, 0x35, 0x90, 0xee, 0x60, 0xb5, 0x77, 0x01, 0x25, 0x03, 0xff, 0x04, 0x3f, 0x03, 0xff, 0x00, 0x00, 0x72, 0x0c, 0xb8, 0x1d, 0xa1, 0x00, 0x96, 0x2e, 0xb0, 0xa6, 0xfc, 0x35, 0xc0, 0x7f, 0x40, 0x26, 0xb3, 0x87, 0x61, 0x83, 0xf1, 0x9f, 0xd0, 0x93, 0xd5, 0x96, 0xff, 0x6b, 0xf5, 0x7d, 0xed, 0x22, 0x1b, 0x78, 0x59, 0x53, 0xbc, 0x37, 0x80, 0x90, 0x92, 0x54, 0xaf, 0x48, 0x2b, 0x1c, 0x02, 0xea, 0x05, 0xff, 0x78, 0x07, 0xfa, 0x16, 0xfc, 0x04, 0xfb, 0x00, 0xfd, 0x80, 0xfb, 0x00, 0xf9, 0x08, 0x02, 0xc5, 0xc0, 0x93, 0x02, 0x6d, 0x33, 0x39, 0x60, 0xfd, 0x40, 0xdf, 0x91, 0xff, 0x07, 0xfd, 0x23, 0x7f, 0x5f, 0x75, 0x14, 0x29, 0xca, 0x7f, 0x6f, 0x37, 0xef, 0xbf, 0xcf, 0xff, 0xdf, 0x5d, 0x09, 0x4b, 0xa9, 0x2d, 0xa5, 0x80, 0x78, 0xe5, 0xe3, 0x20, 0x13, 0x0e, 0x03, 0x47, 0xda, 0x57, 0x33, 0x5f, 0xe2, 0x3f, 0x36, 0x8f, 0x0a, 0x9f, 0x8c, 0x9f, 0xcc, 0x8f, 0xd2, 0x4f, 0x32, 0x36, 0x06, 0xcb, 0x40, 0x20, 0x7e, 0xa8, 0xa4, 0xf2, 0x2a, 0x9e, 0x49, 0x89, 0x9b, 0x0c, 0x70, 0x4c, 0xad, 0x46, 0x01, 0x22, 0x15, 0xe4, 0x6f, 0xd1, 0x4f, 0xfa, 0x3f, 0xe5, 0x1f, 0xf0, 0x5f, 0xf7, 0x33, 0xc0, 0x07, 0xd1, 0xa0, 0xb3, 0x2f, 0xf1, 0x8f, 0x6b, 0x37, 0x63, 0x1d, 0xe2, 0x41, 0xd0, 0x49, 0xe6, 0x0a, 0x26, 0x05, 0x2a, 0x0a, 0xca, 0x0a, 0x47, 0x07, 0x5f, 0x03, 0xb7, 0x01, 0x9c, 0xa9, 0x9c, 0xa3, 0x5b, 0x3c, 0xb1, 0x2f, 0x06, 0xe9, 0xc6, 0xc2, 0xfd, 0x4d, 0x67, 0xe4, 0x94, 0x1a, 0x38, 0x94, 0xf0, 0x1a, 0x98, 0xdc, 0xe0, 0x3f, 0xe0, 0x2f, 0xe0, 0x1f, 0xf0, 0x1f, 0x0e, 0x3e, 0x04, 0x88, 0x0f, 0xd3, 0x1f, 0x37, 0x12, 0xdd, 0x72, 0x01, 0x0f, 0x02, 0x61, 0x4f, 0x71, 0x3f, 0xcc, 0x5f, 0x94, 0x3f, 0xe5, 0x3f, 0xad, 0x1f, 0x87, 0x0f, 0x50, 0x0e, 0x14, 0x0d, 0x80, 0x17, 0x65, 0x51, 0xcf, 0x32, 0x5a, 0x09, 0x89, 0xf0, 0x49, 0xf1, 0x7f, 0xf6, 0x70, 0xfe, 0xd0, 0xf2, 0x40, 0xf0, 0x70, 0xd4, 0x58, 0xcc, 0x68, 0x49, 0xc6, 0xd5, 0xfe, 0x00, 0xf4, 0x1c, 0x50, 0x3e, 0x23, 0x10, 0x53, 0x09, 0xfa, 0xb6, 0x62, 0xd9, 0xa9, 0x44, 0x26, 0x92, 0xc2, 0x32, 0xd0, 0x6f, 0x03, 0x61, 0x5f, 0x14, 0x5f, 0x56, 0x1f, 0x35, 0x3f, 0x95, 0x1f, 0x70, 0x3f, 0x28, 0x60, 0x07, 0xd8, 0x3f, 0x52, 0xd3, 0xf8, 0x14, 0x14, 0x95, 0xc4, 0xda, 0x58, 0x1f, 0x8c, 0x97, 0xcf, 0xdf, 0xcd, 0xff, 0x32, 0x3f, 0x3e, 0xb7, 0xe1, 0x86, 0x0d, 0x09, 0x00, 0x81, 0x80, 0x00, 0xf7, 0xe2, 0xfb, 0x6d, 0x6d, 0xde, 0xca, 0xd7, 0x8e, 0xe7, 0x1c, 0x17, 0x14, 0x39, 0x2c, 0x91, 0x0e, 0xa5, 0x5c, 0xac, 0x76, 0x1a, 0x10, 0x78, 0x6e, 0x08, 0x4c, 0x03, 0x28, 0x30, 0x40, 0x16, 0xfb, 0x17, 0x7e, 0x80, 0xc4, 0x43, 0x7a, 0x9b, 0x75, 0x36, 0xb3, 0xc1, 0xf0, 0x41, 0x87, 0x04, 0xfe, 0x99, 0xc6, 0xb7, 0xdf, 0x22, 0xfc, 0x51, 0x7d, 0x73, 0xdd, 0x0a, 0xbf, 0x29, 0x7c, 0x00, 0x7f, 0x23, 0xa1, 0xc2, 0x52, 0x87, 0x5d, 0xd8, 0xe1, 0xf5, 0x93, 0xfe, 0xa7, 0xfa, 0x58, 0xf4, 0xbb, 0xf9, 0x32, 0x82, 0xbb, 0x03, 0xac, 0x9b, 0x62, 0x3b, 0x80, 0x29, 0x00, 0xc3, 0x80, 0xde, 0x16, 0x40, 0xb0, 0x65, 0xb6, 0x4e, 0x21, 0x69, 0xe5, 0xa8, 0x44, 0xcd, 0xc7, 0x4d, 0x87, 0x14, 0x93, 0x04, 0x6f, 0xee, 0x2f, 0xc7, 0x9f, 0x3a, 0x1f, 0x16, 0x1f, 0xd4, 0x05, 0x38, 0x04, 0x0a, 0x16, 0xd2, 0xde, 0x07, 0xcc, 0xf9, 0x59, 0x62, 0x91, 0x92, 0x38, 0x7d, 0x7c, 0xd9, 0xa0, 0xf9, 0x98, 0xf4, 0x38, 0xf1, 0xfc, 0xfa, 0x01, 0xe5, 0xb9, 0x41, 0xe9, 0x08, 0xac, 0x25, 0xfb, 0xeb, 0xa0, 0x90, 0x40, 0x19, 0x4a, 0x46, 0x10, 0xac, 0xb1, 0x9b, 0xb7, 0x87, 0x29, 0x50, 0x5c, 0x09, 0x28, 0x18, 0x60, 0x46, 0x4e, 0x9e, 0x01, 0xfe, 0x07, 0xff, 0xe3, 0xff, 0x53, 0xfe, 0xe4, 0xff, 0xe9, 0x03, 0xf0, 0x01, 0x1f, 0x1f, 0x8c, 0x06, 0x1f, 0x09, 0xee, 0x3e, 0x50, 0xf7, 0x1f, 0xf7, 0x43, 0x6b, 0xd1, 0xb1, 0xb7, 0xac, 0x7e, 0x31, 0xcb, 0x75, 0x2a, 0x87, 0xa3, 0xbb, 0x69, 0xfd, 0xc7, 0xe8, 0xdc, 0xf1, 0xc3, 0xf7, 0x5f, 0xe9, 0x68, 0xe4, 0xcd, 0x8a, 0x6d, 0x97, 0x05, 0xb3, 0xf1, 0xf8, 0x9f, 0x37, 0x5a, 0x57, 0x8d, 0x4e, 0xb6, 0x01, 0x62, 0x01, 0xef, 0x01, 0xb2, 0x01, 0x27, 0x4f, 0xde, 0x34, 0x82, 0x36, 0xfd, 0xe9, 0x94, 0xa4, 0x5c, 0x47, 0xa7, 0x6d, 0xa4, 0xf8, 0x59, 0xe3, 0x65, 0xba, 0x2b, 0x13, 0x8f, 0x77, 0x3f, 0x21, 0xff, 0x07, 0xff, 0x00, 0xff, 0x00, 0xf5, 0x04, 0xeb, 0x61, 0xa5, 0x30, 0xd2, 0xd0, 0xf6, 0x82, 0x64, 0x19, 0xf7, 0xb8, 0x88, 0x70, 0x9d, 0x8b, 0xf3, 0x0e, 0xff, 0x5a, 0x5d, 0x43, 0xf2, 0x69, 0x80, 0x40, 0x80, 0x0d, 0x80, 0x29, 0x0c, 0x48, 0xa0, 0x14, 0x8b, 0x5a, 0xf5, 0xc9, 0xb5, 0x45, 0x90, 0x88, 0x48, 0x2a, 0x65, 0x75, 0x02, 0x8c, 0x1e, 0x2f, 0xaf, 0x86, 0x1f, 0xa6, 0x1f, 0x32, 0x3f, 0x61, 0x9f, 0x5a, 0x3f, 0x14, 0x80, 0x9f, 0x14, 0xbe, 0xc3, 0xbc, 0x04, 0x63, 0x18, 0x27, 0x4e, 0x3f, 0x05, 0x3e, 0x2c, 0xca, 0x98, 0xcc, 0xc2, 0xea, 0x0e, 0x7c, 0x30, 0xb5, 0x77, 0xa5, 0x98, 0x9b, 0x08, 0x7d, 0xc0, 0xb7, 0x60, 0x78, 0x3f, 0x88, 0x3c, 0xf0, 0x3f, 0x0c, 0x01, 0xf8, 0x6d, 0x74, 0x2e, 0xf1, 0xf2, 0x61, 0x2f, 0x18, 0xe0, 0x4b, 0xc2, 0x57, 0xf6, 0xa5, 0xf7, 0xc1, 0xff, 0xbf, 0xff, 0xff, 0xff, 0x1f, 0x77, 0xd5, 0xad, 0xd7, 0xe7, 0xd2, 0x8a, 0x8d, 0xe4, 0xb8, 0xbf, 0xf7, 0x91, 0x55, 0x07, 0x91, 0x7f, 0x59, 0xee, 0x37, 0xcf, 0xdd, 0xb8, 0xf5, 0x00, 0x2d, 0x00, 0x49, 0x00, 0xd6, 0x00, 0xfc, 0xb7, 0xfa, 0x5e, 0xe0, 0x19, 0xf6, 0xf1, 0xbe, 0x45, 0x19, 0xdc, 0x1e, 0xb7, 0x0a, 0x94, 0x04, 0xd2, 0x16, 0xee, 0x02, 0xd7, 0x06, 0xe1, 0x02, 0x84, 0x05, 0x57, 0x2b, 0xbc, 0x7f, 0x8a, 0xbf, 0x09, 0x83, 0xcd, 0x4c, 0xf1, 0x78, 0x48, 0xa2, 0x95, 0x5e, 0x5c, 0x47, 0x38, 0x0b, 0x85, 0x08, 0x41, 0xb1, 0xdc, 0xf4, 0x5d, 0xf0, 0xea, 0xf9, 0xe3, 0xf8, 0xa4, 0xfa, 0x22, 0xfc, 0x20, 0xfe, 0x01, 0xfa, 0xb8, 0xf4, 0x80, 0xfe, 0xcc, 0x82, 0x6b, 0x00, 0x98, 0x24, 0xbf, 0x5c, 0x00, 0x09, 0xd4, 0x28, 0x91, 0xad, 0x10, 0x69, 0xd8, 0x0d, 0x8f, 0xb0, 0x03, 0x11, 0x1f, 0x44, 0x9f, 0x8b, 0xe0, 0x95, 0xcc, 0xf2, 0x16, 0x97, 0x2e, 0x2e, 0xd6, 0xcf, 0x7f, 0xf9, 0x7f, 0x50, 0xbf, 0xf0, 0x5e, 0xd1, 0x58, 0xc0, 0xd4, 0xf3, 0x08, 0x68, 0xdb, 0xb2, 0xe9, 0x5f, 0xdd, 0x35, 0x5d, 0xcf, 0xf1, 0x0f, 0xf5, 0x4f, 0xea, 0x03, 0xc7, 0x59, 0xe2, 0x4e, 0x33, 0x1b, 0x66, 0x1f, 0xc5, 0x3d, 0xd8, 0x3f, 0x2d, 0x17, 0xad, 0x3c, 0xd1, 0x57, 0x09, 0x45, 0xd9, 0x15, 0x6a, 0x01, 0x1a, 0x01, 0x73, 0xc0, 0x8d, 0x53, 0x93, 0x33, 0x30, 0x38, 0x89, 0x02, 0xea, 0xbd, 0xe4, 0xf9, 0x31, 0x64, 0x8d, 0x03, 0x86, 0x00, 0x36, 0x01, 0x9c, 0x03, 0xc0, 0x0f, 0xda, 0x1f, 0xf0, 0x7f, 0xc0, 0x7f, 0x7f, 0x6f, 0xff, 0x13, 0x7d, 0x0c, 0x37, 0x8d, 0x79, 0x6d, 0xb1, 0x3d, 0x69, 0x8f, 0xd9, 0x19, 0x56, 0x87, 0x98, 0x07, 0xce, 0x9d, 0xd3, 0x91, 0xb8, 0x63, 0x5c, 0x2b, 0x00, 0x12, 0x10, 0x20, 0x95, 0xb6, 0x83, 0x77, 0xcd, 0x95, 0x4e, 0x8a, 0xff, 0xd5, 0xa1, 0xd3, 0x1d, 0xc6, 0x22, 0xde, 0xb9, 0x51, 0xbb, 0xf7, 0x75, 0x3e, 0x62, 0x3d, 0x35, 0x00, 0xdc, 0x00, 0xfa, 0x02, 0x8b, 0x00, 0x99, 0x27, 0x62, 0x6f, 0xd1, 0x87, 0x5e, 0xac, 0xb0, 0x4b, 0x0d, 0x0e, 0x35, 0x5e, 0x70, 0xef, 0x24, 0xd3, 0x1e, 0x60, 0x29, 0x10, 0x42, 0x80, 0x19, 0x00, 0xa5, 0x09, 0xff, 0xb8, 0xbf, 0x27, 0x3f, 0xd7, 0x1f, 0xed, 0xdf, 0xf1, 0x6d, 0xe3, 0x7a, 0xc0, 0x4f, 0xd0, 0x0a, 0xb0, 0x1a, 0xb8, 0x09, 0x00, 0xbe, 0x9c, 0x70, 0xb9, 0xc9, 0x41, 0x9d, 0x9b, 0x9a, 0x1a, 0x24, 0x7a, 0x58, 0x40, 0xb6, 0x57, 0x0c, 0x01, 0x85, 0x42, 0x6d, 0x5b, 0x10, 0xec, 0x61, 0x51, 0xcc, 0x12, 0xe9, 0x37, 0x49, 0x30, 0xc7, 0x08, 0x72, 0x20, 0x0a, 0x0f, 0x10, 0xde, 0x10, 0xfe, 0xcf, 0xff, 0xb8, 0xff, 0x02, 0x7c, 0x0b, 0x64, 0x0b, 0x9c, 0x07, 0xac, 0x17, 0x6d, 0x5e, 0xcf, 0xff, 0x2f, 0xb1, 0xc7, 0xec, 0xd6, 0x0a, 0x68, 0x90, 0xa5, 0x3e, 0xe7, 0xef, 0x52, 0x0f, 0xed, 0xb9, 0xf7, 0x97, 0xd7, 0x7e, 0xe5, 0x5a, 0xe6, 0x6c, 0x35, 0x03, 0x25, 0x7c, 0x6e, 0xd0, 0x62, 0x14, 0xab, 0x90, 0x13, 0xa6, 0x99, 0x31, 0xec, 0x7d, 0x59, 0xff, 0x8a, 0x7f, 0xf0, 0xff, 0xc0, 0x7f, 0xe1, 0xff, 0xe0, 0x02, 0x0f, 0xc0, 0x50, 0x28, 0x41, 0x25, 0x14, 0xc8, 0xb0, 0x34, 0xa4, 0xb9, 0x09, 0xdf, 0xe6, 0xfb, 0xfe, 0xac, 0xfe, 0x5e, 0xef, 0x3b, 0xd7, 0x47, 0xa0, 0xed, 0x6a, 0xb7, 0x77, 0x7f, 0xfe, 0xfc, 0xc1, 0xfc, 0x22, 0x4c, 0x80, 0x51, 0x80, 0xe1, 0xf3, 0x72, 0x12, 0xb4, 0xc6, 0xbf, 0x22, 0xfb, 0xe1, 0xff, 0xbc, 0xdb, 0xb7, 0xb4, 0x9f, 0x11, 0x13, 0x20, 0x4b, 0x80, 0x20, 0x58, 0x40, 0x0b, 0xc8, 0xb3, 0x97, 0x55, 0xeb, 0x0e, 0x47, 0x94, 0x2e, 0x58, 0x3a, 0xf6, 0x13, 0x4f, 0x05, 0x52, 0x02, 0x5a, 0x0e, 0x08, 0x06, 0xc7, 0x2f, 0xdc, 0x1f, 0x21, 0xaf, 0x9b, 0xff, 0xf7, 0xff, 0x20, 0x99, 0x50, 0xa3, 0xe8, 0x58, 0x49, 0x19, 0xa6, 0xc9, 0x3e, 0x8c, 0xb4, 0x1c, 0x11, 0x4a, 0xa2, 0x9d, 0x88, 0xb0, 0x15, 0xbc, 0x9b, 0x01, 0xff, 0x30, 0xff, 0x45, 0xff, 0x95, 0xff, 0xc9, 0xf9, 0x42, 0xf7, 0x5c, 0x9f, 0x90, 0xfd, 0xa0, 0xd1, 0x58, 0xe6, 0x52, 0x4c, 0x65, 0xef, 0x66, 0xb5, 0x85, 0xf2, 0x44, 0xbd, 0xb2, 0xe3, 0x89, 0xe5, 0x39, 0x2b, 0xec, 0x5d, 0x01, 0x7f, 0x13, 0x80, 0x62, 0x88, 0x6b, 0xa0, 0x57, 0x68, 0x8c, 0x9a, 0x95, 0x3e, 0xd4, 0xd2, 0xf4, 0xfb, 0x24, 0xbc, 0xf0, 0xfd, 0x0d, 0x78, 0xdf, 0xec, 0x14, 0x2c, 0xf9, 0x12, 0x81, 0x4c, 0x78, 0x75, 0x9f, 0x9a, 0x87, 0x51, 0xbd, 0x1b, 0x94, 0xcd, 0x35, 0xba, 0x60, 0x30, 0x5f, 0xa7, 0xcb, 0xad, 0xb0, 0x93, 0xd2, 0xbb, 0xab, 0x83, 0xa6, 0xb8, 0x33, 0xe0, 0xc3, 0xc0, 0xb3, 0xe0, 0x37, 0xc0, 0xbf, 0xc9, 0xa7, 0x1b, 0xd4, 0xdd, 0xf6, 0xb3, 0x33, 0x4e, 0xb9, 0x71, 0x86, 0x90, 0x8e, 0x6a, 0xee, 0x3b, 0xac, 0xbd, 0xc6, 0x3f, 0x5b, 0x9f, 0x3c, 0x13, 0xd0, 0x09, 0xc0, 0x0a, 0xd0, 0x05, 0xd0, 0x7f, 0xb7, 0x6f, 0xf6, 0x4c, 0xd3, 0x41, 0x0b, 0x6a, 0xb5, 0xed, 0xd9, 0xaf, 0xd9, 0x0f, 0x5b, 0x66, 0xef, 0xbc, 0x72, 0xc2, 0x95, 0x9e, 0x1e, 0xc2, 0x00, 0xfe, 0x03, 0x6a, 0x00, 0xfe, 0x03, 0xc9, 0x37, 0x54, 0x22, 0x16, 0x90, 0xe5, 0xb2, 0x88, 0x99, 0x65, 0x5e, 0xb8, 0x14, 0x76, 0xc4, 0xab, 0x0b, 0x02, 0x22, 0x03, 0x92, 0x01, 0xbf, 0x43, 0xbe, 0x03, 0xfe, 0xaf, 0xff, 0x8b, 0xff, 0x67, 0x3e, 0xda, 0xc1, 0xd6, 0x11, 0x73, 0xb2, 0x09, 0xfb, 0xdd, 0xba, 0xa4, 0xf9, 0xff, 0xfc, 0x46, 0xfe, 0xce, 0xfa, 0xd9, 0x45, 0x89, 0x21, 0xa9, 0x04, 0xf6, 0x05, 0x7b, 0x01, 0x7d, 0x01, 0x67, 0x40, 0x8e, 0x64, 0x7e, 0x68, 0x13, 0x91, 0x63, 0xa0, 0xbf, 0x6b, 0x1f, 0x03, 0x7e, 0x1b, 0x23, 0x08, 0x65, 0x40, 0x5b, 0x34, 0xf5, 0x8c, 0x5b, 0x90, 0xd3, 0xbd, 0x76, 0xd3, 0xff, 0xda, 0xa7, 0xdb, 0xf5, 0xc0, 0xc7, 0xdf, 0xcd, 0xd5, 0x5d, 0xd5, 0x3c, 0x1a, 0x9c, 0xdd, 0x97, 0xaa, 0xfe, 0x7b, 0x7d, 0x40, 0x80, 0x1f, 0x60, 0x3e, 0xe0, 0x7f, 0xc0, 0xdf, 0xe0, 0x7b, 0x80, 0x1b, 0x42, 0x03, 0xa0, 0x12, 0x04, 0x59, 0xf8, 0x0e, 0x30, 0x16, 0x83, 0xc3, 0xed, 0x45, 0xcc, 0x4e, 0x55, 0xeb, 0xfc, 0xef, 0xa7, 0x85, 0xef, 0xb7, 0xb0, 0xfb, 0x04, 0xcb, 0x00, 0xd7, 0x80, 0xfe, 0x7d, 0xf1, 0x87, 0xf2, 0x64, 0xe3, 0xa7, 0x8f, 0x68, 0x98, 0xcc, 0xa1, 0x16, 0xd6, 0xf7, 0x39, 0xcc, 0x1e, 0x4f, 0x2a, 0x43, 0x73, 0x61, 0xc9, 0x90, 0x62, 0x80, 0xb7, 0x20, 0x1b, 0x00, 0x69, 0xb7, 0x4f, 0x55, 0xd9, 0x67, 0xbb, 0x99, 0xc1, 0x5e, 0x5f, 0x32, 0x60, 0x9e, 0xaf, 0xad, 0xdb, 0x34, 0xfd, 0x90, 0xd3, 0xca, 0xc5, 0xf7, 0x40, 0x7f, 0x00, 0xbf, 0x00, 0x3f, 0x00, 0x5f, 0x00, 0x45, 0x60, 0xbe, 0xc7, 0x4e, 0xff, 0x43, 0xd3, 0x69, 0x2c, 0xd6, 0x51, 0xda, 0x8c, 0x18, 0x02, 0x7a, 0xec, 0x3e, 0x76, 0x9f, 0xff, 0x8a, 0xfd, 0x8b, 0xfd, 0x40, 0xff, 0x00, 0xfd, 0x80, 0xfd, 0xe8, 0xec, 0x67, 0x15, 0x4e, 0x6e, 0xc6, 0x72, 0x55, 0x81, 0xbc, 0x1a, 0xc2, 0xd2, 0x44, 0xe6, 0xf7, 0xf9, 0xb7, 0xfc, 0x4d, 0xfe, 0x9d, 0xfe, 0x05, 0xdc, 0x00, 0x00, 0x00, 0x00, 0x00, 0x90, 0x96, 0x01, 0x59, 0x01, 0xc0, 0xa0, 0x9d, 0x63, 0x83, 0xe4, 0xc8, 0xb7, 0xe5, 0x1c, 0x1d, 0xac, 0xc3, 0x88, 0x55, 0x23, 0x48, 0x53, 0x70, 0x31, 0x3c, 0xf8, 0xaf, 0xf2, 0x11, 0xfe, 0x82, 0xfd, 0xb7, 0x67, 0x6c, 0x32, 0x65, 0x76, 0x94, 0xd3, 0x96, 0x40, 0xca, 0x56, 0x96, 0xd7, 0xcf, 0x5a, 0xaf, 0x77, 0x4f, 0x72, 0x3f, 0x40, 0x37, 0xf0, 0x4c, 0xb0, 0x38, 0x90, 0x14, 0xc0, 0x3c, 0xc0, 0x3b, 0xb0, 0xb1, 0x9c, 0x72, 0x6f, 0x96, 0x09, 0xc7, 0x7d, 0x26, 0xa4, 0xe0, 0x06, 0x79, 0xa1, 0xeb, 0x7c, 0x36, 0xfd, 0x12, 0xf9, 0x1f, 0xf8, 0xbb, 0xfa, 0x08, 0xf8, 0x00, 0xf0, 0x00, 0xf8, 0x80, 0x1f, 0x3c, 0x0e, 0xff, 0x34, 0xed, 0x1e, 0x86, 0x2a, 0x27, 0x94, 0x10, 0xbc, 0x37, 0x1d, 0x9c, 0xdf, 0xf3, 0x7f, 0xcd, 0xdf, 0xa9, 0x2f, 0x83, 0xb6, 0x4f, 0x07, 0x89, 0x02, 0x7f, 0x00, 0xf4, 0xba, 0x49, 0x25, 0xab, 0x5f, 0x0b, 0xb0, 0xaf, 0xa1, 0x78, 0x1c, 0xa4, 0x5f, 0x78, 0x8f, 0xa7, 0xe4, 0x98, 0xee, 0xd5, 0xa0, 0x5f, 0xa0, 0x0f, 0xe0, 0x37, 0xc0, 0x1f, 0x60, 0x3f, 0x80, 0xe7, 0x1b, 0xa7, 0x62, 0x18, 0x7b, 0x3d, 0x79, 0xc5, 0xa6, 0x79, 0x77, 0x2e, 0x85, 0xbf, 0xd8, 0xde, 0xd9, 0xa0, 0xa8, 0x44, 0xbf, 0xe0, 0x0d, 0x40, 0xbd, 0xf0, 0xd1, 0xe0, 0x4a, 0xe0, 0x56, 0x00, 0x45, 0xf5, 0x8a, 0x0c, 0x32, 0x35, 0x3d, 0xce, 0xd0, 0xe0, 0x81, 0x14, 0x53, 0x05, 0x3f, 0x46, 0x4d, 0x18, 0x18, 0xd8, 0x0a, 0x3f, 0x65, 0x3f, 0xf0, 0x7f, 0xac, 0x3f, 0x37, 0x3f, 0xa8, 0x4a, 0x04, 0xd3, 0xbf, 0x93, 0xf0, 0x6c, 0x15, 0x92, 0x35, 0xdb, 0x4d, 0x23, 0xe2, 0xaa, 0xa0, 0x0a, 0xc5, 0x2a, 0xb7, 0xd6, 0x8f, 0xc7, 0x0f, 0xda, 0x4f, 0xd0, 0x0f, 0xf8, 0x1f, 0xf0, 0xbf, 0x12, 0x70, 0xf5, 0xea, 0xc3, 0x1a, 0xd3, 0x13, 0xde, 0xb7, 0x45, 0x29, 0x07, 0xe4, 0x1f, 0xb9, 0xef, 0xe3, 0x9f, 0x06, 0xff, 0x9c, 0x7f, 0x56, 0x21, 0x6a, 0x80, 0x91, 0x00, 0xdd, 0x00, 0x4d, 0x9f, 0x51, 0xce, 0xcd, 0x50, 0xb5, 0x95, 0xb7, 0xed, 0xcc, 0x0c, 0x6a, 0x1f, 0x51, 0x7c, 0x8f, 0xcf, 0xbe, 0x6c, 0x59, 0x80, 0xe6, 0x00, 0x81, 0x40, 0x4e, 0xe0, 0x57, 0xe0, 0xff, 0x80, 0xf7, 0xa8, 0x23, 0x4d, 0x21, 0x89, 0x90, 0x0c, 0x2b, 0xe8, 0xd9, 0x05, 0xb6, 0xfc, 0x12, 0x89, 0x4a, 0x38, 0x01, 0x33, 0x04, 0x0e, 0x39, 0xe2, 0x5f, 0x81, 0xbe, 0x11, 0xff, 0xce, 0xff, 0x98, 0xff, 0x35, 0xfe, 0x3e, 0xf0, 0xc1, 0xfa, 0xb5, 0xf8, 0xfd, 0xb3, 0xe2, 0x7b, 0xa4, 0xb0, 0xe6, 0x10, 0xdd, 0xc0, 0x3f, 0xc0, 0x6a, 0xc0, 0x2c, 0xc0, 0xec, 0xe3, 0x48, 0xef, 0xf3, 0xfb, 0x14, 0x73, 0x76, 0xf9, 0x46, 0xd0, 0xfe, 0xf3, 0x11, 0xf9, 0xbb, 0xf9, 0xbe, 0x4e, 0x81, 0x2d, 0x7b, 0x0f, 0x63, 0x96, 0xa7, 0x02, 0xea, 0x05, 0xfc, 0x05, 0x15, 0x02, 0xd6, 0x03, 0xf3, 0x02, 0x8d, 0x0d, 0xc9, 0xd9, 0x36, 0xc6, 0xb9, 0x86, 0xc5, 0x9e, 0x8e, 0xdc, 0xdb, 0x25, 0x02, 0xc9, 0x3e, 0xa3, 0xe0, 0xe7, 0xf4, 0xf9, 0x5d, 0xe8, 0x3e, 0x70, 0x1d, 0x40, 0x14, 0xb0, 0x26, 0x80, 0x0e, 0xe0, 0xe0, 0xf9, 0xe0, 0x2a, 0xa8, 0xea, 0xd0, 0x47, 0xf9, 0xe5, 0x9a, 0x7c, 0x4f, 0x4e, 0xbf, 0xd6, 0xaf, 0xa6, 0x37, 0xb5, 0x38, 0xcf, 0x84, 0x68, 0x6f, 0xce, 0xb9, 0x8f, 0x21, 0x07, 0xff, 0x0a, 0xeb, 0x00, 0xd6, 0x41, 0xc5, 0xa0, 0xf1, 0x30, 0xfd, 0x78, 0xcd, 0x00, 0x66, 0x4c, 0x51, 0x2b, 0xf1, 0x70, 0xad, 0x25, 0xf5, 0x53, 0x53, 0x49, 0xd5, 0x48, 0xa4, 0x12, 0xeb, 0x88, 0xd7, 0x20, 0xf3, 0x5d, 0x69, 0x07, 0xf9, 0x16, 0x9b, 0x13, 0xe0, 0x37, 0xcc, 0x1c, 0x2b, 0x0e, 0x62, 0xbf, 0xd3, 0x1a, 0x76, 0x11, 0xd1, 0x2d, 0x17, 0x5f, 0xf6, 0x05, 0x18, 0x02, 0x00, 0x02, 0xc0, 0x01, 0x38, 0x97, 0xd0, 0x73, 0x68, 0xb9, 0x68, 0xb1, 0x28, 0x9a, 0x34, 0x2b, 0x5e, 0x59, 0xfa, 0x6d, 0x2f, 0x63, 0x2a, 0xde, 0xc2, 0xc2, 0x8a, 0x39, 0x97, 0xc7, 0x69, 0xb5, 0x7f, 0xa4, 0xff, 0x76, 0x7d, 0xf1, 0x9c, 0xf3, 0x61, 0x17, 0x96, 0x8c, 0x35, 0xbf, 0xed, 0x95, 0x1f, 0xe8, 0xa6, 0x2b, 0xe5, 0xe9, 0x63, 0xf1, 0x78, 0x4b, 0xe5, 0x57, 0xd0, 0x85, 0x00, 0x7a, 0x00, 0xf5, 0x00, 0xfe, 0xf5, 0x80, 0x45, 0x85, 0xca, 0xe4, 0x9d, 0xf0, 0x7b, 0xf7, 0xe1, 0xf5, 0xc8, 0x9f, 0x32, 0x2c, 0x7e, 0x60, 0x3e, 0x60, 0x0d, 0x20, 0x44, 0xf0, 0x4b, 0xe0, 0x9f, 0xbc, 0xff, 0x7c, 0xff, 0x07, 0x02, 0x66, 0x74, 0x30, 0x64, 0x0c, 0xa2, 0x14, 0x6a, 0x39, 0x41, 0x39, 0xfe, 0x64, 0x80, 0x00, 0x40, 0x17, 0x81, 0x72, 0xdf, 0x1c, 0x1f, 0x12, 0x1f, 0xa1, 0x1f, 0xd1, 0x5f, 0x96, 0x7f, 0x20, 0xca, 0x1f, 0xf5, 0x07, 0xf1, 0x3b, 0xf2, 0x0f, 0xa3, 0x67, 0xb2, 0x40, 0x27, 0xf9, 0xaa, 0xae, 0x1b, 0x31, 0x38, 0x28, 0x58, 0x19, 0x05, 0x34, 0x5b, 0x70, 0x92, 0x3d, 0xcb, 0x4a, 0x6f, 0x87, 0x3b, 0xff, 0xeb, 0xb6, 0xaa, 0x36, 0x77, 0x12, 0x53, 0xfb, 0x39, 0xc3, 0xb9, 0x53, 0xae, 0x76, 0xcb, 0xfc, 0x32, 0xf2, 0xfb, 0xaf, 0xeb, 0x83, 0x72, 0x04, 0x1e, 0x00, 0x23, 0x00, 0x2f, 0x00, 0x31, 0xf2, 0xfc, 0x91, 0x72, 0x54, 0xb2, 0xda, 0x95, 0x53, 0xf9, 0xf7, 0x3d, 0x94, 0x62, 0x44, 0xaf, 0x5f, 0x13, 0x4f, 0x01, 0x3d, 0x07, 0xf4, 0x0f, 0x54, 0x0f, 0x98, 0x17, 0x6a, 0x07, 0x9c, 0x3f, 0x59, 0x7f, 0x85, 0x3f, 0xea, 0xc7, 0x2d, 0x3b, 0xfd, 0x2b, 0xe3, 0x16, 0xa1, 0xa8, 0xb0, 0x6c, 0xaa, 0x74, 0x48, 0xb6, 0x68, 0x92, 0x10, 0x1d, 0x20, 0xe2, 0x00, 0xfe, 0x07, 0xf9, 0x21, 0x32, 0x35, 0xca, 0x19, 0xaa, 0x55, 0x2b, 0x75, 0x9d, 0x47, 0xb3, 0xc0, 0x40, 0xf5, 0x57, 0xcd, 0xe2, 0xf2, 0xfc, 0xd4, 0xb9, 0x4e, 0x0a, 0xd1, 0x17, 0x40, 0x0f, 0xe0, 0x18, 0x40, 0x0b, 0xc0, 0x15, 0xb7, 0xff, 0x37, 0x22, 0xe0, 0xa2, 0x9c, 0xd5, 0x87, 0xdb, 0xac, 0x8e, 0xac, 0x3d, 0xec, 0xed, 0xd0, 0x78, 0x32, 0xc5, 0x2f, 0xc0, 0x15, 0x80, 0x2d, 0x00, 0x16, 0xc0, 0x85, 0x40, 0xdf, 0xe8, 0xaf, 0x5a, 0x0d, 0x60, 0x82, 0x88, 0x6d, 0xa6, 0xef, 0xb4, 0xdd, 0x08, 0x77, 0x60, 0xfd, 0x40, 0xde, 0x62, 0xde, 0x54, 0xae, 0x7b, 0xfb, 0x5a, 0x04, 0xf8, 0xf4, 0x11, 0x2b, 0x00, 0x35, 0x27, 0xde, 0x4e, 0x52, 0xee, 0xfb, 0xfb, 0x54, 0xe3, 0x8b, 0x38, 0xef, 0x27, 0xf9, 0x67, 0x73, 0xe7, 0x3a, 0x5b, 0x27, 0x3d, 0x1f, 0x94, 0x07, 0xff, 0x02, 0xc2, 0x05, 0xc3, 0x07, 0xbf, 0x03, 0x75, 0x94, 0x58, 0xfe, 0x9d, 0xc7, 0xdb, 0x95, 0x97, 0x6d, 0x10, 0x32, 0xed, 0x40, 0xb1, 0xee, 0xcb, 0x7c, 0xf9, 0x7f, 0x97, 0x48, 0x43, 0x78, 0x3f, 0x00, 0x5f, 0x00, 0x0f, 0x00, 0x37, 0x00, 0x0d, 0xd0, 0x30, 0xb0, 0x10, 0xec, 0x31, 0xe2, 0x07, 0xe8, 0x63, 0xe8, 0x6f, 0x31, 0xad, 0xee, 0x8a, 0x8c, 0x18, 0xb2, 0x39, 0xec, 0xad, 0xb3, 0xfb, 0xdc, 0x60, 0x8a, 0x40, 0xff, 0x97, 0xfe, 0x69, 0xd2, 0xaf, 0xd0, 0xb0, 0xd3, 0x2d, 0xfd, 0xbd, 0xfa, 0xd5, 0xe4, 0xcc, 0xd0, 0xc5, 0xb2, 0x09, 0xdf, 0xbf, 0x33, 0xa9, 0xc3, 0xbb, 0x03, 0x45, 0x03, 0x8c, 0x0d, 0x81, 0x07, 0xe4, 0x05, 0xa0, 0xeb, 0x98, 0x99, 0x4a, 0xb9, 0xfd, 0x85, 0x36, 0x66, 0x9c, 0xee, 0xbf, 0x68, 0x42, 0x77, 0xb6, 0x48, 0x65, 0xa6, 0xa4, 0x26, 0xaf, 0xcf, 0x4c, 0x3f, 0xc7, 0xbf, 0xc6, 0x7f, 0xff, 0x3f, 0x04, 0x51, 0xfe, 0x51, 0x48, 0x8c, 0x36, 0x79, 0xa7, 0x4f, 0xc1, 0xb1, 0x64, 0x44, 0x5f, 0x28, 0x52, 0x2c, 0x45, 0x33, 0x83, 0x0b, 0xf2, 0xbf, 0xce, 0x0f, 0xf0, 0xaf, 0xf0, 0x57, 0xfc, 0x6f, 0x4e, 0x2f, 0xfe, 0x5e, 0x0d, 0x6d, 0x59, 0xba, 0x6a, 0x5e, 0xb9, 0x65, 0x1e, 0x10, 0xed, 0xee, 0x62, 0x2b, 0xdb, 0xeb, 0x9f, 0xc6, 0xb2, 0xcd, 0x00, 0x1d, 0x00, 0xf8, 0x00, 0xc2, 0x00, 0xf8, 0xa3, 0x9e, 0x1e, 0x03, 0xd1, 0x7b, 0x9c, 0xd0, 0x5d, 0x1c, 0x88, 0xcf, 0xab, 0x52, 0xf2, 0xa5, 0x01, 0xf9, 0x71, 0x61, 0x74, 0xa9, 0xfe, 0xd1, 0xff, 0x51, 0xff, 0xbc, 0x7f, 0x69, 0xff, 0x12, 0x40, 0x83, 0x80, 0x8c, 0x40, 0xc0, 0x90, 0x1c, 0x04, 0x1d, 0xaa, 0xac, 0xd3, 0x9b, 0xeb, 0x47, 0xef, 0xd2, 0xc5, 0x89, 0xe7, 0xbf, 0xb0, 0xaf, 0xe6, 0x52, 0x00, 0xfd, 0x08, 0xf5, 0x00, 0xf7, 0x7f, 0xf1, 0x6d, 0x0e, 0xaf, 0xd8, 0xeb, 0xe5, 0x9f, 0xb1, 0x0b, 0xf0, 0x79, 0xb0, 0x3b, 0xc8, 0xc7, 0x40, 0x70, 0x04, 0x67, 0x7a, 0x1b, 0x35, 0x25, 0x70, 0x6f, 0xb8, 0x7d, 0x02, 0x7f, 0x5d, 0x17, 0xe0, 0x77, 0x01, 0xaf, 0x65, 0xdd, 0xa8, 0x1b, 0x10, 0xbd, 0x0b, 0x6f, 0x25, 0x6f, 0x80, 0x7a, 0xc3, 0xdb, 0x52, 0x23, 0x0d, 0xdb, 0x20, 0xf3, 0x39, 0xd7, 0x29, 0xff, 0xb9, 0xcf, 0xa9, 0xf8, 0xeb, 0xf1, 0x96, 0xe8, 0xa1, 0x30, 0x11, 0x18, 0x71, 0x90, 0x79, 0xc0, 0x3d, 0x80, 0x07, 0xe0, 0xc7, 0xac, 0x67, 0xd6, 0xbf, 0x2b, 0x16, 0x87, 0xc5, 0xc4, 0x24, 0x10, 0x90, 0xec, 0x6c, 0x5b, 0x00, 0xb1, 0xfc, 0x41, 0x1d, 0x7d, 0x99, 0x2c, 0xa7, 0xc0, 0x2b, 0x02, 0xc0, 0xef, 0xc1, 0x0f, 0x97, 0x7f, 0x72, 0x7f, 0x23, 0x8f, 0xf6, 0x57, 0xbb, 0x07, 0x81, 0x0f, 0x44, 0x41, 0x1e, 0xce, 0xbb, 0x4a, 0x2b, 0x6b, 0xf4, 0xd6, 0xaf, 0xb5, 0xa0, 0xe6, 0x58, 0xcd, 0x94, 0xb3, 0xde, 0xca, 0xff, 0x3a, 0x75, 0x2d, 0x1c, 0xd3, 0x03, 0xe3, 0x06, 0x92, 0x05, 0xee, 0x00, 0xdb, 0x03, 0x26, 0xe1, 0xc1, 0x89, 0x16, 0x1d, 0x2a, 0x4d, 0xbe, 0xf0, 0x98, 0x1d, 0xa4, 0x49, 0xa0, 0x08, 0x82, 0x3e, 0x4f, 0x09, 0xdf, 0x6e, 0x3f, 0xb0, 0x9f, 0xdd, 0x3f, 0x98, 0x7f, 0x24, 0x7f, 0xb0, 0x60, 0x80, 0x8c, 0x12, 0x09, 0xc0, 0x20, 0x36, 0xc0, 0x12, 0xba, 0xca, 0xdf, 0xd2, 0xab, 0xa6, 0x45, 0xc9, 0x9f, 0xfd, 0xdf, 0xf5, 0xee, 0xfe, 0xd5, 0xe4, 0x6f, 0xe9, 0xfe, 0xbc, 0xdb, 0xdf, 0xfd, 0xe7, 0x5d, 0xb1, 0xc8, 0x2e, 0x4b, 0x58, 0x25, 0x2f, 0xf5, 0xf8, 0xef, 0xd6, 0xca, 0x6c, 0x77, 0x82, 0xb7, 0xbb, 0x30, 0x6d, 0xa0, 0xeb, 0xc0, 0x12, 0x40, 0x7b, 0xc0, 0x2f, 0xc0, 0x51, 0x09, 0xb8, 0x03, 0x4a, 0x37, 0x7a, 0x9f, 0x16, 0x1f, 0xc7, 0x5f, 0xed, 0x5f, 0x4c, 0xdf, 0x66, 0xe3, 0x35, 0x85, 0xd4, 0xc4, 0x32, 0x1d, 0x92, 0xe9, 0x9f, 0xe1, 0x60, 0x7b, 0xf3, 0x67, 0x5a, 0x11, 0xe1, 0x4e, 0xc3, 0xe2, 0x0b, 0x33, 0x66, 0x68, 0xd7, 0x86, 0x6c, 0x43, 0x2c, 0x2f, 0x13, 0x7f, 0xec, 0xdf, 0x54, 0x8f, 0x88, 0x73, 0x4f, 0x42, 0xdd, 0x80, 0x56, 0x00, 0x45, 0x00, 0xc2, 0x68, 0x06, 0xfc, 0x30, 0x79, 0x06, 0xf5, 0x05, 0xfd, 0x03, 0x5b, 0xc8, 0x63, 0x1e, 0xe1, 0x79, 0x62, 0x0a, 0x07, 0x67, 0x62, 0x05, 0x7d, 0x47, 0x70, 0x98, 0x22, 0x06, 0x1f, 0x04, 0xbe, 0x01, 0x3c, 0x79, 0x93, 0x7c, 0xb1, 0x81, 0x99, 0xc7, 0xe1, 0x21, 0x33, 0x85, 0x8d, 0xc0, 0x36, 0xe1, 0xa2, 0xe2, 0xe0, 0xfd, 0xed, 0xf5, 0x9f, 0xf0, 0x42, 0xe2, 0x82, 0xd2, 0xfc, 0x2e, 0x58, 0x41, 0x86, 0xe0, 0x76, 0x0b, 0x16, 0x3d, 0xe2, 0x6e, 0x56, 0x93, 0xb6, 0xc0, 0xe7, 0x06, 0x02, 0xe9, 0xe5, 0x78, 0x5a, 0xfd, 0x6c, 0xf9, 0x2c, 0xf8, 0x7c, 0xff, 0x94, 0xfd, 0x8b, 0xf1, 0x07, 0xe8, 0x13, 0xb8, 0x77, 0x09, 0xc0, 0x5e, 0xf5, 0x9b, 0x04, 0xb3, 0x2f, 0xe2, 0xf8, 0xe8, 0x39, 0x40, 0x99, 0x40, 0x94, 0xb0, 0x38, 0xdc, 0x2d, 0x44, 0xfb, 0x66, 0xff, 0xae, 0xff, 0x67, 0xff, 0x8f, 0x21, 0xef, 0x29, 0x82, 0x41, 0xa7, 0xd4, 0x69, 0xb3, 0x74, 0x5f, 0x4e, 0x2f, 0x42, 0x2d, 0x77, 0x2f, 0x1b, 0x5d, 0xf8, 0xc4, 0xe7, 0x00, 0x08, 0x0d, 0xb8, 0x1e, 0xe0, 0x3c, 0xd0, 0x1b, 0xc0, 0x9f, 0xda, 0x2f, 0xe2, 0x1f, 0x2d, 0x2f, 0x67, 0xa7, 0x4b, 0x0f, 0x92, 0xd3, 0x78, 0x8e, 0x33, 0x4a, 0xaf, 0x91, 0xc0, 0xb6, 0xe0, 0x5c, 0xc0, 0x3c, 0x50, 0x36, 0x70, 0x08, 0xe0, 0x02, 0x50, 0xfb, 0xb8, 0x9e, 0x51, 0x43, 0xdb, 0xa9, 0xc7, 0xf2, 0x3e, 0x59, 0x70, 0x6b, 0xc6, 0x6b, 0xbe, 0x5b, 0xc5, 0x0e, 0x93, 0x74, 0x35, 0xe0, 0x75, 0xf0, 0x9f, 0xe0, 0x1b, 0xa0, 0x0d, 0xe0, 0x14, 0x5a, 0x8c, 0xd2, 0x68, 0x30, 0x48, 0x05, 0x1f, 0x54, 0x15, 0x5c, 0x04, 0xca, 0x09, 0x02, 0x02, 0xf6, 0x07, 0x15, 0x04, 0x20, 0xba, 0x80, 0xca, 0x00, 0xf5, 0x5e, 0xfd, 0xfb, 0xff, 0xff, 0xff, 0xf0, 0x3d, 0xf8, 0x07, 0xb2, 0x0b, 0xd0, 0xc1, 0x98, 0x77, 0xd0, 0xa7, 0xcf, 0x1f, 0x8d, 0x0a, 0x3b, 0xaf, 0xc9, 0xff, 0xa4, 0x7b, 0xa5, 0x2f, 0x5f, 0x4c, 0xd3, 0x91, 0x1a, 0x02, 0x8d, 0x00, 0x87, 0x76, 0x86, 0xc7, 0xef, 0xb5, 0x39, 0x47, 0xaa, 0x75, 0x4d, 0x2c, 0x1a, 0xf1, 0xe7, 0xec, 0xf5, 0x47, 0x66, 0xa7, 0x74, 0x6c, 0xa0, 0xc3, 0xe0, 0xe7, 0x00, 0x37, 0xc0, 0x65, 0x80, 0xf3, 0xdf, 0xbf, 0x20, 0xf3, 0x26, 0x42, 0xb1, 0x01, 0xf7, 0x12, 0xd3, 0x5a, 0x30, 0xfe, 0x45, 0xfc, 0xa3, 0xfc, 0xb9, 0xf4, 0x5e, 0xf4, 0xdb, 0xf2, 0xc5, 0x03, 0xe8, 0x2d, 0x40, 0x01, 0x00, 0x05, 0x87, 0x47, 0x8c, 0xd1, 0x51, 0x85, 0x56, 0xc1, 0x77, 0x5f, 0x18, 0x59, 0xa3, 0xd9, 0xea, 0xbc, 0xca, 0x81, 0x1c, 0x94, 0x84, 0xcb, 0x58, 0x4c, 0xff, 0x2c, 0xff, 0xb1, 0xff, 0x72, 0x7f, 0x4b, 0xa0, 0xf9, 0xe0, 0x4d, 0x61, 0x65, 0x97, 0xe0, 0xef, 0x8e, 0xb6, 0x3f, 0xab, 0xdc, 0x15, 0x20, 0xc4, 0xe6, 0xcb, 0x74, 0x70, 0x8d, 0xd3, 0xb7, 0xd3, 0xc3, 0xec, 0xdf, 0xf8, 0x8f, 0xf0, 0x2f, 0xff, 0x90, 0xff, 0x87, 0xfd, 0x75, 0xf5, 0xb1, 0xa1, 0x71, 0x86, 0xaf, 0x04, 0xd4, 0x24, 0x04, 0x0f, 0xf0, 0x4d, 0x70, 0x9c, 0x28, 0x77, 0x14, 0xe5, 0x61, 0xc0, 0xbd, 0xac, 0xaf, 0x00, 0x21, 0xf0, 0x5b, 0xb0, 0xe6, 0x79, 0x30, 0x78, 0x50, 0xb1, 0x5b, 0x34, 0x7e, 0xea, 0x13, 0xc1, 0xa7, 0x5e, 0x57, 0xa3, 0x2e, 0xe4, 0xef, 0x15, 0x9f, 0x0a, 0x16, 0xcf, 0x04, 0xf7, 0x00, 0xff, 0x88, 0x27, 0x0f, 0x70, 0x0f, 0x19, 0x15, 0xe7, 0x00, 0x71, 0xcd, 0x8e, 0x88, 0xd3, 0x04, 0xc9, 0x55, 0xcb, 0xd9, 0xd2, 0x87, 0xf7, 0x4f, 0xba, 0x7f, 0xe9, 0xff, 0x06, 0xdf, 0x00, 0xfe, 0x00, 0xff, 0x46, 0xfa, 0xfd, 0x2c, 0xbb, 0x66, 0x80, 0xe3, 0x3f, 0xc4, 0xab, 0x3f, 0xa0, 0x1d, 0x1c, 0x88, 0xaf, 0xef, 0xff, 0x8c, 0xee, 0x63, 0x15, 0xee, 0x02, 0xe2, 0x00, 0xf8, 0x00, 0xe8, 0x00, 0x78, 0x80, 0x08, 0x90, 0x4a, 0x80, 0x82, 0x34, 0x20, 0x38, 0xe9, 0x2d, 0x63, 0x1b, 0x81, 0xe3, 0x5b, 0xaf, 0xfc, 0xff, 0x9e, 0xa7, 0x77, 0x7b, 0xf6, 0x73, 0xfc, 0x37, 0xf7, 0x37, 0xff, 0xff, 0xe7, 0x7d, 0xe9, 0xcf, 0xb3, 0x7d, 0xef, 0xc7, 0xaf, 0x54, 0xd9, 0x56, 0xe2, 0x9f, 0x1e, 0x0c, 0x50, 0x2b, 0x47, 0xa8, 0x00, 0x43, 0x18, 0x6a, 0x4a, 0x02, 0xa9, 0x98, 0x36, 0xc8, 0x22, 0x04, 0x02, 0x2a, 0x37, 0x8a, 0x04, 0x56, 0xe2, 0x61, 0x66, 0x2c, 0x4e, 0xb6, 0x93, 0x48, 0x13, 0xbc, 0xf2, 0x21, 0x4c, 0x03, 0x98, 0xb2, 0x16, 0x5f, 0x91, 0x1f, 0xd6, 0xdf, 0x4e, 0xdf, 0x64, 0x3f, 0x12, 0x0d, 0x89, 0x3f, 0x10, 0x0a, 0x3b, 0x19, 0xae, 0xcc, 0x93, 0x84, 0xa2, 0xb0, 0x43, 0x62, 0x86, 0x64, 0x7b, 0x81, 0x20, 0x5d, 0x1c, 0x9f, 0x34, 0x1f, 0xa8, 0x1f, 0x6c, 0x3f, 0x20, 0x3f, 0xb3, 0x80, 0x8f, 0x00, 0xbb, 0xd0, 0xf5, 0xb2, 0x45, 0xbe, 0x60, 0x72, 0x63, 0x37, 0x9a, 0x56, 0xf7, 0xcf, 0xf4, 0x50, 0xe7, 0x83, 0xfa, 0xda, 0xfc, 0xad, 0x62, 0xb7, 0x05, 0x78, 0x95, 0x2d, 0xcb, 0x40, 0x9b, 0x80, 0x50, 0xd0, 0xf1, 0x70, 0x1d, 0xf2, 0x0c, 0xfc, 0x79, 0x4c, 0xe4, 0x03, 0xb0, 0xc1, 0x2e, 0x3e, 0x45, 0x5c, 0xd3, 0xdb, 0xb3, 0xfe, 0x9d, 0xfe, 0x87, 0xf2, 0xdb, 0xf0, 0x31, 0x04, 0x29, 0x4e, 0x7b, 0x39, 0xab, 0xf4, 0x02, 0x0e, 0xe0, 0xf0, 0xff, 0x37, 0x04, 0x1b, 0x1f, 0x04, 0xd5, 0x0f, 0x1c, 0x0e, 0xc1, 0x00, 0xe5, 0x44, 0x3e, 0xf9, 0x0f, 0xff, 0x3f, 0xff, 0x1f, 0x79, 0xa6, 0x08, 0x34, 0x07, 0x74, 0xf8, 0x0d, 0xb3, 0xa1, 0xcc, 0xad, 0x4a, 0x26, 0x45, 0x30, 0x09, 0x1e, 0xec, 0xf9, 0xb1, 0x50, 0x74, 0x54, 0xfc, 0xa5, 0xfa, 0x83, 0xfe, 0x53, 0xff, 0x73, 0x2e, 0xa0, 0xe3, 0xda, 0x95, 0x35, 0x32, 0x9d, 0xb6, 0xd3, 0xd0, 0x63, 0x3a, 0x4b, 0x0b, 0x3c, 0x1c, 0x41, 0x1f, 0xae, 0x07, 0xf1, 0x4f, 0xbc, 0x1f, 0x4c, 0x9f, 0x5d, 0xff, 0x1e, 0x5f, 0x10, 0x11, 0x5d, 0x10, 0xc3, 0x81, 0xf7, 0x08, 0x1b, 0x44, 0x9a, 0xc6, 0xd3, 0x53, 0xc9, 0xff, 0x5d, 0x3b, 0xf6, 0x5c, 0xfd, 0xaf, 0xff, 0x15, 0xf6, 0xd3, 0xfd, 0x11, 0xf7, 0x80, 0xff, 0xa0, 0xfe, 0x6c, 0x73, 0xd4, 0x03, 0x4e, 0x90, 0x81, 0x9a, 0x10, 0xad, 0xc3, 0x4b, 0x8e, 0xb3, 0x2b, 0x18, 0x46, 0x42, 0x8c, 0x57, 0x75, 0x8c, 0xa0, 0x82, 0xe1, 0x27, 0x38, 0x6f, 0xc1, 0xbf, 0xb1, 0x7f, 0x50, 0x18, 0x48, 0x4d, 0x04, 0x80, 0x45, 0x12, 0x65, 0x84, 0x6c, 0x93, 0xfc, 0xa9, 0xbd, 0x9e, 0xa4, 0xe9, 0xff, 0xbf, 0xdf, 0xfe, 0xc1, 0xed, 0x4f, 0xd1, 0x2f, 0xd4, 0xbf, 0x2a, 0x5b, 0x9a, 0xfa, 0xed, 0xef, 0x06, 0x09, 0xb2, 0x21, 0xe1, 0x61, 0x5d, 0xf9, 0x34, 0x9f, 0x6b, 0xfc, 0x1e, 0x36, 0x38, 0x5e, 0x98, 0x10, 0xf8, 0x08, 0x08, 0x2e, 0xf8, 0x3b, 0xf0, 0x7f, 0x70, 0x7d, 0xd0, 0x1f, 0x1c, 0xff, 0x09, 0x4f, 0x9e, 0x1f, 0x07, 0x5f, 0xb4, 0x03, 0xbc, 0x28, 0x54, 0xe8, 0x73, 0x9a, 0x01, 0xe0, 0x85, 0x8b, 0x7b, 0x8d, 0x61, 0x1f, 0xa9, 0x30, 0x4f, 0x3a, 0x76, 0xc1, 0x00, 0x46, 0x02, 0xa8, 0x20, 0x22, 0x00, 0x05, 0xa4, 0x3f, 0x21, 0xe0, 0x50, 0x1b, 0xad, 0x99, 0x69, 0xad, 0xff, 0xf2, 0xdf, 0xfb, 0x6b, 0xbc, 0xfa, 0x80, 0xef, 0xec, 0x53, 0x02, 0xdf, 0x10, 0xfc, 0x5c, 0xff, 0x30, 0xf2, 0x54, 0xf3, 0x29, 0xf9, 0x9a, 0x9e, 0xa8, 0x4f, 0xd7, 0x29, 0x0c, 0x46, 0x10, 0x9b, 0xc1, 0x7d, 0x84, 0xa7, 0x40, 0x22, 0x00, 0x92, 0xe1, 0x3c, 0xc0, 0x95, 0x80, 0x4c, 0xe0, 0xea, 0xb0, 0x32, 0x60, 0x5b, 0x40, 0xb1, 0xe0, 0x17, 0xf1, 0xc8, 0x32, 0xd2, 0x3f, 0x7d, 0x4f, 0x69, 0x6f, 0x16, 0xc7, 0x8e, 0x76, 0x9b, 0x0a, 0x12, 0x48, 0xb2, 0x59, 0xad, 0xf2, 0xbd, 0x17, 0xe6, 0x9f, 0x56, 0x6b, 0x8d, 0xcf, 0x38, 0x8b, 0xe6, 0x90, 0x33, 0xe6, 0x6a, 0xf4, 0xf1, 0xf3, 0x13, 0x1f, 0x50, 0x04, 0x7e, 0x1f, 0x50, 0x1b, 0xac, 0x06, 0x58, 0x02, 0x78, 0x05, 0x78, 0xf7, 0x71, 0x67, 0x55, 0x8b, 0xec, 0x4f, 0x4f, 0x02, 0xa7, 0xfe, 0x08, 0x54, 0xac, 0xe6, 0xf9, 0x73, 0xf7, 0x6c, 0xe2, 0x80, 0x28, 0xdf, 0x03, 0xeb, 0x01, 0x4b, 0x01, 0xd4, 0x00, 0xba, 0x01, 0x2d, 0x13, 0xc1, 0x02, 0xab, 0xc1, 0xfb, 0x20, 0x21, 0x01, 0xa8, 0xb1, 0xfb, 0xc9, 0xc5, 0xe3, 0x45, 0xf2, 0x75, 0xe2, 0x61, 0xf4, 0xdf, 0xfb, 0x99, 0xf2, 0x09, 0xe1, 0x69, 0xf1, 0xa8, 0xfd, 0x70, 0x7f, 0xa0, 0x55, 0xf2, 0x12, 0x30, 0x01, 0x58, 0x2a, 0xf8, 0x2c, 0x4f, 0x1f, 0xd5, 0xba, 0x8a, 0xbb, 0xa5, 0xd7, 0xb3, 0xf7, 0xe3, 0x4f, 0xa3, 0x43, 0x75, 0x58, 0xb0, 0xc0, 0xf6, 0x00, 0xf2, 0xa6, 0x39, 0x03, 0x05, 0x38, 0xa4, 0x78, 0xa2, 0xe3, 0x41, 0x0b, 0xcf, 0x26, 0xaf, 0x39, 0xca, 0xe0, 0x43, 0x42, 0x49, 0x00, 0xb0, 0x1c, 0x2a, 0xfd, 0xe2, 0xff, 0x24, 0xfe, 0x39, 0xff, 0xf7, 0x02, 0x29, 0x05, 0xbd, 0x03, 0x5f, 0xd1, 0xd5, 0x32, 0x70, 0x32, 0xa1, 0x0d, 0x67, 0x84, 0xf9, 0x02, 0xbf, 0x89, 0xe8, 0x63, 0xd4, 0x05, 0x5b, 0x21, 0x92, 0x84, 0xcf, 0x04, 0x2f, 0x01, 0xde, 0x29, 0x14, 0xbe, 0x8f, 0x8a, 0xf6, 0xef, 0xa9, 0xd1, 0x98, 0x8c, 0x9a, 0xac, 0x4f, 0x6b, 0xff, 0x7d, 0x98, 0x11, 0x4a, 0xd7, 0xa8, 0xd1, 0xa0, 0x8e, 0xc0, 0xb9, 0xc0, 0x0c, 0xc0, 0xfb, 0x1d, 0xe5, 0x82, 0x8e, 0x6e, 0x66, 0x48, 0x02, 0xc9, 0x03, 0x30, 0xb8, 0xfb, 0xfe, 0x52, 0xd2, 0x31, 0xf4, 0x1b, 0xf2, 0x30, 0xf2, 0x54, 0xee, 0x3e, 0x00, 0x1a, 0x80, 0x20, 0x90, 0x2e, 0x40, 0xbc, 0x27, 0x41, 0xc9, 0x3b, 0x71, 0x23, 0x9b, 0x92, 0x76, 0x3c, 0xa3, 0xcd, 0x35, 0x51, 0x2b, 0xde, 0x40, 0x24, 0x5b, 0x1a, 0xbc, 0x16, 0xfc, 0x32, 0xf8, 0x37, 0xfc, 0x1e, 0xfc, 0x17, 0xf8, 0x34, 0xf0, 0x10, 0x2b, 0xa8, 0x36, 0x5a, 0x17, 0x6a, 0xc5, 0x3a, 0xa0, 0xc5, 0x5c, 0x4e, 0x06, 0x12, 0x73, 0xca, 0xf6, 0x2a, 0xfd, 0xde, 0xfc, 0xa9, 0xfa, 0x18, 0xfe, 0x84, 0xf8, 0x38, 0xfc, 0x92, 0x7b, 0x5c, 0x43, 0x6f, 0x78, 0x7c, 0xb7, 0x6a, 0xb3, 0x1d, 0xc7, 0x77, 0xf9, 0x88, 0x72, 0xc7, 0x2f, 0x93, 0x18, 0xdd, 0x0d, 0xcf, 0x0b, 0x5a, 0x0a, 0x63, 0x07, 0xe6, 0x01, 0xc8, 0x03, 0xd5, 0xdd, 0x5d, 0xf4, 0xf3, 0x0b, 0x93, 0xec, 0xdd, 0x2d, 0x82, 0xca, 0x67, 0xa4, 0x7b, 0xdb, 0x79, 0xbb, 0x8c, 0xff, 0xa2, 0xd2, 0xbd, 0x05, 0x33, 0x01, 0xda, 0x00, 0xd9, 0x01, 0xf5, 0x00, 0xd7, 0xef, 0x5d, 0xeb, 0xdb, 0xf8, 0x84, 0x01, 0xd5, 0x89, 0x5e, 0x7b, 0xda, 0x3a, 0xa7, 0x7f, 0x67, 0xfe, 0x92, 0x33, 0x17, 0x98, 0x1f, 0x4c, 0x0f, 0xe0, 0x07, 0xe8, 0x0f, 0xb8, 0x0f, 0xfc, 0x91, 0xd9, 0x8d, 0x41, 0x98, 0x64, 0x11, 0x0d, 0x71, 0x92, 0x74, 0x7d, 0xd1, 0x85, 0x3b, 0x20, 0x10, 0x0d, 0x47, 0x1c, 0x87, 0x85, 0x49, 0xf6, 0x05, 0xfe, 0xe0, 0xff, 0x02, 0xfd, 0xb0, 0xff, 0x99, 0x06, 0x9a, 0x85, 0xff, 0x57, 0x36, 0xf2, 0xeb, 0xf8, 0x45, 0xff, 0x70, 0xfc, 0x50, 0xc3, 0xd0, 0x8b, 0xe0, 0xf1, 0xe8, 0x23, 0x8b, 0x68, 0xf5, 0x57, 0x7f, 0xfe, 0xb7, 0xa4, 0x06, 0xd6, 0xe0, 0xf7, 0x60, 0xc7, 0xa0, 0x57, 0xc0, 0xd9, 0xa8, 0xcb, 0x79, 0xe8, 0xd6, 0xda, 0x7f, 0x75, 0x53, 0x7d, 0x7e, 0x24, 0xff, 0xbf, 0xc7, 0x31, 0x4e, 0xec, 0xca, 0x3b, 0xc7, 0xfe, 0xdf, 0x8e, 0x56, 0x00, 0x93, 0x02, 0xdf, 0x00, 0xf0, 0x02, 0xce, 0xe6, 0x8a, 0xf5, 0xab, 0xaf, 0x45, 0xf2, 0x55, 0x5b, 0x76, 0x86, 0xef, 0x84, 0x23, 0x14, 0xcf, 0xf7, 0x1d, 0x2f, 0x1f, 0xd4, 0x7f, 0xfd, 0x0f, 0x3e, 0xc7, 0x0e, 0x1f, 0x0d, 0x07, 0x1f, 0x17, 0x2f, 0x46, 0x03, 0x1b, 0x19, 0xb4, 0x0e, 0xca, 0x37, 0xea, 0x6a, 0x19, 0xb8, 0x8c, 0x79, 0x6d, 0xc9, 0x9d, 0xc9, 0xca, 0x63, 0xcb, 0x6e, 0xae, 0x99, 0x5a, 0xb7, 0x90, 0xc3, 0x5f, 0x9c, 0x72, 0xb5, 0x11, 0xa9, 0x57, 0xc9, 0x67, 0xc7, 0xfc, 0xba, 0xc3, 0x1b, 0x90, 0x4b, 0xf0, 0x37, 0xa0, 0x36, 0xc0, 0x2f, 0xb0, 0xaf, 0x40, 0x52, 0x74, 0xc0, 0x80, 0x77, 0x2b, 0x49, 0x8d, 0x22, 0x94, 0xf5, 0x75, 0x67, 0x90, 0x00, 0x3a, 0x11, 0xaa, 0x0a, 0xa4, 0x4e, 0x5b, 0xf6, 0x26, 0xfa, 0x04, 0xfe, 0x90, 0xff, 0x07, 0xfd, 0x7b, 0xff, 0x0a, 0xe0, 0x08, 0xa0, 0x08, 0x00, 0x09, 0xf8, 0x36, 0xf0, 0x70, 0xfd, 0x7d, 0xca, 0xce, 0xc0, 0x82, 0xf6, 0x59, 0x79, 0x9b, 0x4a, 0x63, 0xfa, 0xea, 0xec, 0xf0, 0xfd, 0xdc, 0xff, 0xb4, 0xff, 0x84, 0x0e, 0xed, 0xd2, 0x9d, 0x1f, 0x95, 0x9d, 0x1b, 0x3f, 0x8e, 0x5e, 0x2c, 0xad, 0x0f, 0x9a, 0x01, 0xfa, 0x04, 0x10, 0x02, 0x85, 0x90, 0x5b, 0x9f, 0xbf, 0xdf, 0xb2, 0xbf, 0xad, 0xbf, 0xa0, 0x72, 0x23, 0xf5, 0x20, 0xb3, 0x00, 0xb8, 0xa0, 0xa5, 0x02, 0xa2, 0xb7, 0x5d, 0x42, 0xac, 0x73, 0x36, 0x21, 0xea, 0xf7, 0xff, 0x13, 0x2f, 0xba, 0x7e, 0x18, 0x2b, 0xe5, 0x93, 0x22, 0xff, 0x29, 0xe0, 0xcd, 0x80, 0x70, 0x50, 0x55, 0x40, 0xcd, 0xfc, 0xb5, 0xac, 0x8f, 0xfd, 0xa5, 0xf3, 0xaf, 0xf7, 0xe7, 0xe3, 0x63, 0x02, 0x64, 0x93, 0x6c, 0x95, 0xd4, 0xbf, 0x3c, 0xff, 0xad, 0xbf, 0xf5, 0x87, 0x12, 0x08, 0xb4, 0x82, 0x85, 0xb5, 0x19, 0x30, 0x67, 0xaf, 0xe5, 0x83, 0x09, 0x3b, 0x49, 0x03, 0x95, 0xc7, 0xd1, 0x8f, 0x5b, 0x0f, 0x34, 0x0f, 0x44, 0x0f, 0x0b, 0xbf, 0xdd, 0x17, 0x11, 0x13, 0x74, 0x0d, 0xb8, 0x1f, 0x38, 0x0b, 0x7c, 0x1e, 0xc9, 0x8e, 0x0f, 0xea, 0xfb, 0x9b, 0xb9, 0xf0, 0x18, 0xcb, 0x93, 0x73, 0xf6, 0xce, 0x34, 0x51, 0x3c, 0x3d, 0x65, 0xee, 0xaa, 0x8d, 0xdf, 0x00, 0xde, 0x16, 0xff, 0x47, 0xcf, 0xa6, 0x5f, 0x00, 0x1e, 0x02, 0xaf, 0x0d, 0xfd, 0x89, 0xed, 0x6a, 0x24, 0x19, 0xde, 0x03, 0x1b, 0x0c, 0xb2, 0xbe, 0xd6, 0x9c, 0xfe, 0x36, 0xdf, 0xc4, 0xfa, 0x44, 0x24, 0x56, 0x50, 0xb9, 0xce, 0x24, 0xa5, 0xa4, 0x15, 0xa3, 0xbe, 0x4b, 0x4b, 0x14, 0x01, 0xec, 0x01, 0xaa, 0x02, 0x1e, 0x95, 0x22, 0x2d, 0x64, 0xfd, 0xa2, 0xf8, 0x16, 0xfb, 0x97, 0xfe, 0x1b, 0xe0, 0x50, 0x80, 0x5e, 0x60, 0x2e, 0xf8, 0xe4, 0xf2, 0xbe, 0x10, 0x93, 0xa9, 0x4c, 0xe9, 0x6d, 0x15, 0x92, 0x1d, 0x85, 0xaf, 0xf5, 0xef, 0xf9, 0x8f, 0xd3, 0x13, 0xd1, 0xaf, 0xfb, 0x57, 0x3c, 0xa3, 0xac, 0x38, 0x98, 0x06, 0x81, 0xc4, 0xcb, 0x5d, 0x37, 0xd5, 0xb0, 0x7b, 0x1d, 0x10, 0x72, 0x01, 0x48, 0x0a, 0x5a, 0x9f, 0x87, 0x18, 0x0c, 0xff, 0x8e, 0xff, 0xa4, 0xff, 0xa3, 0xff, 0xf5, 0x42, 0x24, 0x3a, 0x12, 0x69, 0x4c, 0xa7, 0xa7, 0x05, 0x79, 0x7a, 0x39, 0x2a, 0x88, 0xe2, 0x1d, 0xd2, 0x92, 0x03, 0xe0, 0x03, 0xe0, 0x1f, 0x87, 0xbf, 0x8b, 0xbf, 0xce, 0xff, 0xe7, 0xff, 0xfe, 0xac, 0xe0, 0x37, 0x68, 0x49, 0xe0, 0x21, 0x7c, 0x6c, 0xf0, 0x71, 0xd3, 0xc3, 0xf0, 0x36, 0xc0, 0xaf, 0x41, 0xa7, 0x04, 0x3e, 0xce, 0x97, 0xac, 0x88, 0x47, 0x69, 0xbf, 0xe1, 0xff, 0x46, 0xcc, 0xe4, 0xf3, 0x73, 0x2b, 0xc6, 0x84, 0x58, 0x79, 0xad, 0xa2, 0x19, 0x5f, 0x6f, 0x1d, 0xa9, 0xdc, 0xb8, 0x0d, 0x51, 0xe0, 0x2b, 0xd0, 0xa7, 0xc0, 0xe0, 0xe0, 0xf7, 0x40, 0x63, 0xc0, 0x13, 0x79, 0xda, 0xc8, 0x0c, 0x6f, 0x2b, 0x25, 0xac, 0xe5, 0xcb, 0x69, 0x74, 0x0b, 0xc2, 0xc6, 0x51, 0xad, 0x6e, 0xe1, 0x57, 0xf5, 0x1f, 0xf0, 0x4b, 0xfe, 0x0f, 0xc1, 0x07, 0xa5, 0x09, 0x73, 0x41, 0xcc, 0x6e, 0x32, 0xcc, 0x5e, 0x63, 0x62, 0x53, 0x2b, 0xc1, 0xe6, 0x3e, 0x8c, 0x0d, 0x15, 0xc7, 0x66, 0xfa, 0xa1, 0x6a, 0xae, 0xa0, 0x66, 0xac, 0x7f, 0x2b, 0xff, 0x01, 0xff, 0x01, 0xff, 0x01, 0xda, 0xab, 0x17, 0x6c, 0x6b, 0x13, 0x01, 0xb4, 0xf2, 0xb7, 0xe6, 0x50, 0x6e, 0xa3, 0x4c, 0x53, 0x31, 0xbe, 0x1e, 0x57, 0x1b, 0x9c, 0x07, 0x58, 0x07, 0x28, 0x0f, 0xb8, 0x03, 0x0c, 0x07, 0xf8, 0x61, 0x94, 0x8e, 0x7e, 0xbe, 0xaa, 0x28, 0xab, 0xd9, 0x68, 0x91, 0x51, 0x77, 0xc7, 0xff, 0x35, 0x03, 0x66, 0x80, 0xb5, 0xb0, 0xe8, 0x80, 0x83, 0x40, 0x55, 0xf0, 0x7b, 0xf0, 0x16, 0x30, 0xd5, 0x8f, 0xa8, 0x8f, 0xb4, 0x2f, 0x0b, 0x3b, 0x76, 0xd7, 0xa6, 0x80, 0x43, 0x92, 0x1b, 0x7c, 0xf8, 0xcd, 0xd4, 0x0a, 0xa3, 0x36, 0x36, 0x8c, 0x03, 0x7e, 0x02, 0xe4, 0x07, 0xa2, 0x02, 0x88, 0x00, 0x8a, 0x4b, 0xba, 0xd8, 0xc3, 0x72, 0xda, 0x00, 0x70, 0x39, 0x84, 0x6c, 0x43, 0x4b, 0x9f, 0x6b, 0x5f, 0x46, 0x0f, 0x4e, 0x6f, 0x28, 0xef, 0xd4, 0x0f, 0x70, 0x07, 0xa0, 0x0f, 0x74, 0x02, 0x0c, 0x61, 0xdc, 0x6b, 0xbd, 0x2a, 0xed, 0xb6, 0x4b, 0xa1, 0xb7, 0x29, 0xcc, 0x19, 0xec, 0x80, 0xad, 0x13, 0xde, 0x15, 0x57, 0x8a, 0x5b, 0x1a, 0xdd, 0x40, 0x1e, 0x3b, 0xe1, 0x00, 0xd7, 0x82, 0xfb, 0xe6, 0x4d, 0xc8, 0x16, 0x20, 0xa3, 0x39, 0x52, 0x76, 0x0e, 0x91, 0x27, 0x6a, 0xcd, 0xea, 0x3f, 0xca, 0x6f, 0x41, 0x8e, 0x80, 0x13, 0x60, 0xff, 0x90, 0x05, 0x00, 0x02, 0x80, 0x58, 0xe0, 0x78, 0x53, 0x61, 0x33, 0x74, 0x52, 0x82, 0xc3, 0xe5, 0x60, 0xa3, 0xae, 0x42, 0xa0, 0x22, 0x0d, 0x6e, 0x95, 0x61, 0xaf, 0x79, 0x0f, 0x0a, 0x3f, 0x46, 0x1f, 0x2e, 0x0f, 0x8a, 0x5f, 0x14, 0xdf, 0x3c, 0x7b, 0x40, 0xb7, 0xc8, 0xeb, 0x30, 0xa7, 0xc1, 0x9f, 0x24, 0x3f, 0x48, 0x8e, 0xd2, 0xfb, 0x23, 0xdc, 0x20, 0x57, 0x23, 0xb7, 0x2a, 0x76, 0x0e, 0xe6, 0x40, 0x2f, 0x04, 0xf7, 0x88, 0xbf, 0x43, 0xe2, 0x73, 0xa9, 0x31, 0xee, 0x84, 0x45, 0xe7, 0x8e, 0x70, 0xb1, 0x6e, 0x65, 0xce, 0x96, 0xc1, 0xc0, 0x21, 0xff, 0x00, 0x3b, 0x44, 0x00, 0xce, 0xf9, 0xd5, 0xd2, 0xfc, 0xcc, 0xff, 0x06, 0xfe, 0xcb, 0xfd, 0x4b, 0x37, 0xf6, 0x70, 0xd3, 0xca, 0xdb, 0xb2, 0x9e, 0x8d, 0x51, 0xfc, 0x73, 0xfb, 0x0b, 0xb7, 0xbd, 0x4b, 0x1f, 0x0b, 0xd2, 0x02, 0xfa, 0x04, 0xca, 0x03, 0xc8, 0x01, 0xdf, 0x07, 0xff, 0x03, 0xfd, 0x06, 0x7f, 0x04, 0xfe, 0x01, 0xce, 0x4f, 0xe4, 0x3e, 0x34, 0x89, 0xf7, 0xe9, 0x02, 0xb4, 0x96, 0xcf, 0xcf, 0x5a, 0xff, 0x9f, 0xb5, 0x10, 0xc0, 0x00, 0x90, 0x33, 0xc0, 0x02, 0x6f, 0xfe, 0x7f, 0xb8, 0x1f, 0x35, 0xc7, 0x0d, 0x64, 0x1e, 0x4b, 0x0e, 0xf3, 0x17, 0xa0, 0x04, 0x2a, 0x22, 0xb7, 0xbf, 0xba, 0x56, 0x77, 0xe8, 0x9f, 0x3c, 0x84, 0xc7, 0xe2, 0xb3, 0x88, 0x69, 0xef, 0x18, 0x7c, 0x80, 0x6d, 0x69, 0xa5, 0xb6, 0xfa, 0xb1, 0xa1, 0x20, 0x63, 0x71, 0x8f, 0x16, 0xff, 0xc1, 0xc9, 0x8a, 0xf4, 0x13, 0x41, 0x7a, 0x81, 0xe5, 0xdb, 0x60, 0x37, 0x08, 0xff, 0x0d, 0x01, 0xef, 0x86, 0xbf, 0x95, 0xcc, 0x02, 0x55, 0x50, 0x0b, 0xe5, 0x9e, 0x84, 0xfd, 0x1e, 0x8e, 0x01, 0xb8, 0x3b, 0x38, 0x3f, 0x7c, 0xc4, 0xe6, 0x7a, 0x8e, 0x02, 0xcf, 0x68, 0x6d, 0x00, 0xbe, 0x97, 0x75, 0x3f, 0x8f, 0xc1, 0xbc, 0xcf, 0x6b, 0xf5, 0xe1, 0x0e, 0xc6, 0xe6, 0xd1, 0xf3, 0xfe, 0x32, 0x5e, 0x99, 0x1f, 0x3f, 0x4b, 0x37, 0x17, 0x68, 0x03, 0x2a, 0x01, 0xd5, 0x05, 0xef, 0x00, 0x36, 0x48, 0x94, 0x34, 0x58, 0x0c, 0x12, 0x4f, 0xaa, 0x69, 0x59, 0x51, 0x48, 0xce, 0x6b, 0x68, 0x0e, 0x2a, 0x42, 0x42, 0xa9, 0x27, 0xd4, 0x07, 0x4e, 0x3f, 0xc2, 0x3f, 0xca, 0x7f, 0x83, 0xff, 0x0a, 0xe0, 0x78, 0x3b, 0xfc, 0x6e, 0xb6, 0x69, 0xbe, 0x31, 0x76, 0xdc, 0x0f, 0xbe, 0xbe, 0x12, 0xb8, 0x71, 0x0c, 0xef, 0xe4, 0x8f, 0x70, 0xf0, 0xa0, 0x4b, 0x70, 0x53, 0xd0, 0xec, 0xb8, 0xf9, 0x0f, 0xf8, 0x18, 0xf8, 0x22, 0xfa, 0xdb, 0xf9, 0x3a, 0x6d, 0x4e, 0x13, 0x60, 0x8d, 0x6e, 0x01, 0x21, 0x53, 0xcb, 0xfe, 0x22, 0xd5, 0x6b, 0x8c, 0x3e, 0x8a, 0xb8, 0xab, 0x48, 0x7e, 0x84, 0x20, 0x59, 0x13, 0x66, 0x2e, 0xf3, 0x1e, 0xa6, 0x1c, 0x1e, 0x17, 0x6b, 0x1d, 0xad, 0x34, 0x9b, 0x45, 0x7c, 0x2f, 0x94, 0xb5, 0x24, 0xb8, 0xb2, 0xfe, 0x4b, 0x38, 0xef, 0x49, 0xfb, 0x97, 0x7f, 0xe3, 0xf3, 0x47, 0xe1, 0xa1, 0xf9, 0xa1, 0x30, 0x5a, 0x86, 0x2f, 0x87, 0xe5, 0xb1, 0x28, 0xa6, 0xc1, 0x3a, 0xc0, 0xe5, 0xa1, 0xd8, 0xc0, 0x9f, 0xf2, 0x50, 0xe7, 0x50, 0xfe, 0xe0, 0xfc, 0x10, 0xfc, 0xf2, 0x1b, 0xd0, 0xab, 0xb1, 0x93, 0xd2, 0x27, 0xe0, 0xb3, 0x75, 0xc3, 0x10, 0x77, 0xd6, 0x55, 0xa2, 0xa9, 0xf0, 0xbf, 0xca, 0x57, 0xa1, 0xe4, 0x9f, 0xa6, 0x0f, 0x1d, 0x90, 0x33, 0x60, 0xd1, 0xb0, 0x87, 0xce, 0x97, 0xf1, 0xff, 0xdb, 0x07, 0xa9, 0x9d, 0xf1, 0x85, 0xc3, 0xd3, 0x00, 0x61, 0x90, 0xf2, 0x80, 0x9a, 0xa0, 0x0d, 0xb0, 0x96, 0xd0, 0x7d, 0xe8, 0xb1, 0x38, 0x00, 0x38, 0xd0, 0xfd, 0xbb, 0xe8, 0x8a, 0xa8, 0x4d, 0x36, 0xe4, 0xe4, 0xc8, 0x1b, 0x20, 0x98, 0xc8, 0x59, 0x40, 0x5b, 0xdd, 0x8b, 0xa5, 0xe0, 0xf1, 0xdd, 0x75, 0x70, 0x93, 0x1b, 0xfc, 0x62, 0x31, 0x39, 0x02, 0x9f, 0x4d, 0xe5, 0xab, 0xd1, 0xd7, 0xc6, 0x82, 0x3f, 0xeb, 0x65, 0xe1, 0x8a, 0x9d, 0x3e, 0xff, 0x18, 0x0f, 0x4f, 0x20, 0x75, 0x0e, 0x74, 0x17, 0xcb, 0x07, 0x90, 0x07, 0x18, 0x07, 0x4e, 0x06, 0x03, 0x43, 0x01, 0xa2, 0x01, 0x87, 0x01, 0x32, 0xf5, 0xbf, 0xca, 0x2a, 0x97, 0x04, 0x6f, 0xc2, 0x37, 0xdc, 0x27, 0x6e, 0x97, 0x86, 0x4f, 0x94, 0xcf, 0x57, 0x03, 0x29, 0x27, 0x15, 0xaa, 0xd0, 0xff, 0xc0, 0x3f, 0x2b, 0x4f, 0xc1, 0x03, 0x1e, 0x0e, 0x07, 0x01, 0xf9, 0x80, 0x41, 0xc1, 0x12, 0x24, 0x32, 0xd6, 0x9d, 0xdf, 0x31, 0xc4, 0x90, 0x71, 0xc1, 0x58, 0x1b, 0x00, 0xf2, 0x80, 0x08, 0x0a, 0xa2, 0x92, 0x4e, 0xb7, 0x7d, 0xdc, 0xc0, 0x57, 0x4f, 0x91, 0x35, 0x32, 0xe4, 0xe6, 0x91, 0x8e, 0x0d, 0xd9, 0x50, 0x8a, 0x18, 0x49, 0xff, 0x8c, 0xff, 0xab, 0xfe, 0x63, 0xff, 0xfe, 0xff, 0x30, 0x73, 0x60, 0x3e, 0x70, 0x98, 0xf0, 0xdb, 0x78, 0xc4, 0xf3, 0xc2, 0x6b, 0xdb, 0xeb, 0x6b, 0x8f, 0x3a, 0x92, 0xac, 0x2d, 0x5c, 0x59, 0xa4, 0x4f, 0xc5, 0x94, 0xc3, 0x3e, 0xff, 0x3c, 0xbf, 0x25, 0x57, 0xb1, 0xb6, 0xcf, 0xf9, 0xd3, 0x85, 0x17, 0x76, 0x7f, 0xa2, 0xa9, 0x1f, 0x96, 0xe8, 0xc9, 0xf6, 0xe3, 0x57, 0x19, 0xf2, 0x76, 0x87, 0xa0, 0x03, 0xff, 0x00, 0xcf, 0x00, 0x0c, 0x01, 0x53, 0xc0, 0xf1, 0xa1, 0x73, 0x80, 0x71, 0xc2, 0xdd, 0x03, 0x08, 0xd5, 0xb3, 0xf0, 0xcd, 0xb5, 0xfd, 0xc6, 0x81, 0x15, 0x88, 0x52, 0x06, 0x6d, 0xff, 0x74, 0x3b, 0x2f, 0x9f, 0xa0, 0xff, 0x30, 0xbd, 0xb5, 0xe1, 0x78, 0xdb, 0xb8, 0x1f, 0x2f, 0x48, 0x3d, 0x68, 0x26, 0xce, 0x1c, 0xdf, 0x06, 0xba, 0x2b, 0x83, 0x0e, 0xa6, 0x10, 0xb9, 0x1a, 0x0e, 0xff, 0xc6, 0x7f, 0x99, 0xff, 0xd7, 0xff, 0x91, 0x4b, 0xba, 0xf9, 0x01, 0xad, 0x7e, 0xc2, 0x25, 0x06, 0x7f, 0x65, 0x89, 0x9d, 0x20, 0x6b, 0xe0, 0x79, 0xc0, 0x1a, 0xd0, 0x38, 0x10, 0x61, 0x34, 0x1b, 0x89, 0x15, 0xff, 0x03, 0xff, 0x16, 0x00, 0xff, 0x80, 0xfd, 0xd2, 0xf0, 0x93, 0xa4, 0xd4, 0xe3, 0x0c, 0x85, 0x93, 0x05, 0x74, 0x0e, 0x2d, 0x46, 0x04, 0x8a, 0x54, 0xaf, 0x92, 0xf3, 0x50, 0xc9, 0x3f, 0x72, 0xa7, 0x28, 0x5f, 0xc1, 0x73, 0x77, 0xbf, 0xf5, 0xf4, 0x78, 0x87, 0x52, 0x83, 0x86, 0xd8, 0xcd, 0xff, 0xee, 0xd6, 0x32, 0x8f, 0xc6, 0xed, 0xcc, 0x00, 0xbf, 0xc0, 0xe7, 0x00, 0x26, 0x00, 0x50, 0x80, 0xae, 0x00, 0xff, 0x29, 0x8f, 0xdf, 0xe6, 0x6a, 0x14, 0xc5, 0xfe, 0x72, 0x24, 0x15, 0xd2, 0xed, 0xce, 0xd4, 0xd2, 0xaf, 0x6b, 0x5e, 0x46, 0x25, 0x3e, 0xc7, 0x47, 0x02, 0x93, 0x00, 0xea, 0x00, 0xbc, 0x00, 0xfe, 0xc7, 0x4a, 0x70, 0xce, 0x4d, 0x68, 0xc9, 0x14, 0xed, 0xda, 0x1e, 0x2b, 0xb8, 0x99, 0x20, 0xc2, 0x08, 0x3c, 0x74, 0xd2, 0xf0, 0x2f, 0xfe, 0xe1, 0xfc, 0xa2, 0xff, 0x4f, 0xff, 0x63, 0xff, 0x2d, 0x40, 0xc6, 0xdf, 0x5b, 0x28, 0x50, 0xa5, 0x51, 0x15, 0xaa, 0x99, 0x2d, 0xda, 0x79, 0x25, 0x8b, 0xb0, 0x11, 0x18, 0x10, 0x77, 0xa9, 0x2a, 0xfd, 0x94, 0xfe, 0x1d, 0xff, 0x06, 0xff, 0x90, 0xff, 0x12, 0x82, 0x3a, 0xf9, 0x40, 0x4a, 0x8b, 0x09, 0x3c, 0xa7, 0xd8, 0x9c, 0xc5, 0x5d, 0x06, 0x62, 0x0c, 0x01, 0x3c, 0x8d, 0x0c, 0x2a, 0xf7, 0x2d, 0x30, 0xff, 0x60, 0xff, 0x0b, 0xff, 0x04, 0xfe, 0x03, 0xe0, 0x34, 0xf0, 0x7e, 0xf0, 0x26, 0xf0, 0x73, 0xf4, 0x68, 0xfd, 0x6a, 0xed, 0xb2, 0x89, 0x2f, 0x83, 0xd2, 0x36, 0xca, 0x4a, 0xa6, 0xf8, 0x37, 0x18, 0xec, 0x8d, 0x48, 0x5d, 0x4c, 0xef, 0xff, 0x69, 0xbf, 0x25, 0xcc, 0x71, 0x4c, 0x92, 0xa7, 0x63, 0xea, 0x83, 0xc1, 0x40, 0xad, 0x0b, 0x01, 0x01, 0xc1, 0x03, 0x32, 0x01, 0xc0, 0x03, 0x03, 0x23, 0x79, 0x11, 0xe5, 0x02, 0x67, 0x00, 0x70, 0x79, 0x6d, 0x8a, 0xfa, 0x9a, 0xc3, 0x2a, 0x0f, 0xb4, 0x41, 0xb2, 0xbb, 0xb1, 0xf9, 0x8b, 0x61, 0xf7, 0xb9, 0xf7, 0x83, 0x22, 0x9b, 0x04, 0xd7, 0x00, 0xd0, 0x00, 0xeb, 0x01, 0xfe, 0x03, 0x2a, 0x06, 0x14, 0x17, 0x30, 0x42, 0x58, 0xe6, 0x56, 0xbc, 0x68, 0x9b, 0x2f, 0x10, 0xe1, 0x8e, 0x91, 0x44, 0x0b, 0x11, 0xc3, 0x67, 0xb9, 0x3a, 0x50, 0x3f, 0xc0, 0x7f, 0xdd, 0xbf, 0xf1, 0xff, 0xc2, 0xa2, 0x46, 0x3b, 0x69, 0x40, 0x8e, 0xce, 0xda, 0xcd, 0xa4, 0x0c, 0x65, 0xd4, 0x3c, 0xa2, 0x23, 0x61, 0x16, 0x13, 0x64, 0x6d, 0xe1, 0xdf, 0xf3, 0x17, 0xf0, 0x83, 0xf8, 0x1f, 0xff, 0x0b, 0x86, 0x46, 0x31, 0x31, 0x38, 0x55, 0x11, 0x47, 0x7a, 0xae, 0x29, 0xa9, 0xbb, 0x8c, 0x20, 0x4a, 0x52, 0x6c, 0x62, 0xa5, 0xc6, 0x10, 0x7e, 0x1c, 0xe8, 0x93, 0xf0, 0x5f, 0xf8, 0x3f, 0xf8, 0xff, 0x4f, 0x58, 0xba, 0x9b, 0x65, 0x87, 0x91, 0x9b, 0x7b, 0xd8, 0xe3, 0xf9, 0xb5, 0xf8, 0xc5, 0xf8, 0xa7, 0x2c, 0xb3, 0xcd, 0x7a, 0x03, 0xe6, 0x0b, 0xb3, 0x0f, 0xc2, 0x15, 0xc0, 0x07, 0x80, 0x0a, 0xc5, 0x7e, 0x7e, 0xc2, 0x73, 0x94, 0x1d, 0x71, 0xca, 0x8b, 0xa0, 0xaf, 0x40, 0x87, 0x40, 0x6a, 0xf0, 0x3d, 0x20, 0xe0, 0xfc, 0x56, 0x60, 0xc5, 0xb7, 0x54, 0x4e, 0xcf, 0x5e, 0x32, 0x8f, 0xeb, 0x48, 0x17, 0x08, 0x10, 0x5c, 0x6d, 0xe9, 0x92, 0x2a, 0x28, 0x9d, 0x8d, 0x41, 0x99, 0x35, 0x98, 0x70, 0x62, 0x90, 0x4a, 0x90, 0x0b, 0xe8, 0x57, 0xd8, 0x17, 0xe8, 0x7f, 0xe3, 0x0f, 0xff, 0x07, 0x1c, 0xf8, 0x0e, 0xfc, 0x4e, 0xf2, 0xb7, 0xf4, 0x38, 0xfe, 0xad, 0x8b, 0x33, 0x4c, 0x7b, 0xba, 0x8b, 0x9c, 0x60, 0xf1, 0x04, 0x4e, 0x13, 0x18, 0xab, 0x69, 0xbf, 0xc9, 0xff, 0xfd, 0x7f, 0xdf, 0x8b, 0x66, 0x2c, 0xb6, 0xd0, 0x92, 0xde, 0x64, 0x26, 0x8e, 0x4a, 0x89, 0xd0, 0x2d, 0x24, 0xed, 0x5f, 0x95, 0xe3, 0x2c, 0x0f, 0xac, 0x0f, 0xc8, 0x0f, 0x10, 0x0f, 0x74, 0x0f, 0x3c, 0x07, 0x30, 0x3f, 0xf0, 0x37, 0x71, 0xc3, 0x94, 0x2b, 0xf2, 0xd7, 0xcc, 0x0f, 0xba, 0x33, 0xf7, 0xa3, 0x01, 0x5a, 0x09, 0x2a, 0x0a, 0x23, 0x29, 0xed, 0xc8, 0xdb, 0x28, 0x0a, 0xd9, 0x3f, 0xe5, 0xfe, 0x80, 0xe5, 0x01, 0x6b, 0x18, 0x15, 0x16, 0x22, 0x39, 0xe5, 0x2f, 0xaa, 0x0f, 0xd9, 0x0f, 0x83, 0x9f, 0xe5, 0x1b, 0xcb, 0x59, 0xea, 0xc9, 0x4e, 0x2d, 0xd7, 0xd9, 0x42, 0x39, 0xc2, 0x32, 0x00, 0x60, 0x2f, 0xdc, 0xbb, 0xdc, 0xeb, 0xdd, 0x36, 0x0b, 0x33, 0x75, 0xe1, 0xa9, 0x55, 0xe7, 0x0b, 0xb6, 0x9a, 0x77, 0xee, 0x9b, 0x7f, 0x6c, 0xa9, 0x82, 0xca, 0x03, 0xdd, 0x03, 0x71, 0x00, 0x1a, 0x01, 0x22, 0x7a, 0x73, 0x82, 0xb7, 0x2f, 0x84, 0xcd, 0x7a, 0xee, 0x35, 0xe2, 0x3f, 0x2c, 0xc1, 0x65, 0x4e, 0x98, 0x98, 0xc7, 0xe4, 0x07, 0xe0, 0x5f, 0xc8, 0xef, 0xf0, 0xff, 0xe0, 0x7f, 0xe8, 0xff, 0x58, 0x76, 0xc6, 0x84, 0x55, 0xa5, 0x19, 0xcf, 0xed, 0x42, 0xb5, 0xfa, 0x81, 0xb8, 0x4f, 0x12, 0x7f, 0x0f, 0xe7, 0x5a, 0x43, 0x79, 0x00, 0xa4, 0xc0, 0xa7, 0x00, 0x3e, 0x80, 0x07, 0x00, 0xec, 0x3b, 0xf0, 0x06, 0xac, 0x16, 0x5a, 0x86, 0x1c, 0xa6, 0x19, 0xe5, 0x1b, 0xcd, 0xc7, 0x8c, 0xd4, 0x7c, 0xf0, 0xb4, 0xfa, 0x31, 0xf2, 0x29, 0xf2, 0x61, 0xf5, 0x7e, 0xa0, 0x3b, 0xc9, 0x90, 0x8d, 0x09, 0xc0, 0x74, 0xae, 0x24, 0x0a, 0xec, 0x5d, 0x1f, 0x5b, 0x89, 0xc2, 0xf1, 0x9a, 0x89, 0x42, 0x0c, 0x6e, 0xa0, 0xc4, 0x29, 0x2b, 0x7f, 0x9a, 0xbf, 0xe3, 0xbf, 0xe6, 0x7f, 0x01, 0x7f, 0x48, 0xdf, 0xaa, 0x90, 0xc1, 0xa2, 0x66, 0x6b, 0xdc, 0x56, 0x5b, 0x39, 0x35, 0x9c, 0x1f, 0x22, 0x10, 0x37, 0x06, 0x66, 0x0c, 0xd9, 0x0f, 0xe2, 0x2f, 0xc4, 0x1f, 0xf3, 0x03, 0xb7, 0x0f, 0x84, 0x1d, 0x9d, 0xb7, 0x2c, 0xc2, 0x26, 0xe6, 0x52, 0x43, 0x38, 0xa7, 0xe1, 0x2a, 0x45, 0xa9, 0x1f, 0xde, 0x8f, 0x84, 0x3f, 0x3a, 0x0f, 0x86, 0xef, 0x4f, 0x3f, 0xca, 0x43, 0xa8, 0x16, 0x55, 0x80, 0x4f, 0x78, 0xb1, 0x2d, 0xab, 0x84, 0xe1, 0x9e, 0xa8, 0xe1, 0x1f, 0x8e, 0x13, 0x05, 0xb1, 0xcb, 0x98, 0x6f, 0x7e, 0xdf, 0x45, 0x3f, 0xb8, 0x0f, 0x4c, 0x06, 0x54, 0x06, 0x34, 0x01, 0xe0, 0x04, 0xf4, 0xef, 0xa2, 0xcb, 0x51, 0xc8, 0xf5, 0x2c, 0x76, 0xbf, 0x87, 0x1c, 0xda, 0x7b, 0x5e, 0xa1, 0xb6, 0x0c, 0xb3, 0xf9, 0x4c, 0xcd, 0x67, 0x2f, 0x15, 0xca, 0x07, 0x26, 0x01, 0xac, 0x06, 0xee, 0x06, 0xe3, 0xaf, 0xd5, 0xf6, 0x8b, 0x95, 0x9f, 0xa2, 0xdb, 0xd6, 0xb7, 0xeb, 0x0f, 0x73, 0x15, 0x1f, 0xf2, 0xec, 0xfc, 0x61, 0xe8, 0xd8, 0x70, 0x79, 0xc0, 0xd3, 0xe0, 0xb3, 0x20, 0x6f, 0x00, 0xaf, 0x19, 0x0a, 0xf1, 0xc5, 0x3d, 0xda, 0x90, 0xc8, 0x0a, 0x6d, 0xcf, 0x37, 0x42, 0x01, 0xfa, 0x1a, 0x20, 0x34, 0xe3, 0x71, 0x35, 0xc0, 0x34, 0xfc, 0x0e, 0xfb, 0x53, 0xff, 0xc1, 0xff, 0x53, 0xff, 0x76, 0xef, 0xe3, 0xc9, 0xab, 0x56, 0x2d, 0x6d, 0xfd, 0x7a, 0x6b, 0x48, 0x8e, 0xcf, 0x41, 0xf7, 0xeb, 0x60, 0xef, 0xdf, 0xd9, 0xcd, 0xc6, 0x00, 0xd5, 0x01, 0xa9, 0x01, 0xaf, 0x00, 0x6b, 0x01, 0xfb, 0xd8, 0x5b, 0xe7, 0xba, 0x38, 0xc3, 0x6b, 0xa5, 0x9f, 0x1d, 0xc1, 0x6e, 0xfc, 0xd7, 0xb1, 0xae, 0x66, 0xf9, 0x3d, 0xf6, 0x98, 0x40, 0xdd, 0xa0, 0x4b, 0x80, 0xdc, 0x80, 0xeb, 0x00, 0x3f, 0x04, 0x4a, 0xa6, 0x19, 0xf0, 0x22, 0x96, 0x4a, 0x4d, 0xaa, 0xda, 0x74, 0x03, 0x39, 0x4c, 0x42, 0x43, 0x22, 0xe0, 0xd9, 0xf4, 0x4b, 0xfc, 0x27, 0xf8, 0x0f, 0xf0, 0x77, 0xf0, 0x4b, 0xf8, 0x0f, 0xfe, 0x28, 0xf4, 0x54, 0x38, 0x58, 0x7a, 0x56, 0x49, 0x28, 0x31, 0xbb, 0xc0, 0xb1, 0xe0, 0x1d, 0x00, 0x86, 0xa0, 0x83, 0x01, 0xf9, 0xe2, 0x25, 0x33, 0x55, 0x8f, 0x56, 0xff, 0xf4, 0x6f, 0x00, 0xd0, 0x7f, 0x57, 0x75, 0x5c, 0x11, 0x5f, 0x63, 0xb7, 0xea, 0x52, 0x37, 0xa1, 0x7d, 0x4e, 0xf2, 0x9f, 0xd6, 0xf9, 0xea, 0xe1, 0x14, 0xfb, 0x04, 0x6a, 0x03, 0xe1, 0x01, 0xec, 0x00, 0x73, 0x00, 0x1b, 0xcb, 0x9b, 0xfd, 0xf7, 0x25, 0x1c, 0x5b, 0xe2, 0xb3, 0x2d, 0x6a, 0x1b, 0xf3, 0x6c, 0x86, 0xd9, 0xb7, 0xfb, 0xb1, 0xef, 0x7b, 0x78, 0xe1, 0xf8, 0xe8, 0x00, 0xe3, 0x00, 0xf4, 0x00, 0xe0, 0x4c, 0xaa, 0xa1, 0x94, 0x9d, 0x29, 0xa4, 0x44, 0x2a, 0xaf, 0x04, 0x55, 0xbe, 0xc6, 0xd1, 0x60, 0x46, 0x06, 0x0b, 0x94, 0xb4, 0xab, 0x38, 0xd7, 0x0c, 0xff, 0xb5, 0xff, 0xc8, 0xff, 0x57, 0xff, 0x80, 0xcd, 0x00, 0xcf, 0x00, 0x4f, 0x81, 0xa3, 0xfd, 0xda, 0x2f, 0x47, 0x37, 0xa9, 0x5e, 0xfd, 0xf0, 0x6a, 0x9a, 0x82, 0xa1, 0x55, 0x05, 0x7c, 0xfb, 0x2b, 0x7b, 0x3d, 0x61, 0xda, 0x77, 0xc8, 0x0b, 0x60, 0x03, 0xc0, 0x0d, 0x70, 0x3a, 0xbb, 0xcb, 0x18, 0x78, 0xef, 0xba, 0x8b, 0xce, 0xd8, 0xcc, 0x39, 0x49, 0x36, 0xb5, 0xd1, 0x45, 0xa1, 0x2b, 0x6f, 0xc5, 0xc5, 0x3c, 0x74, 0x7f, 0x3e, 0xdd, 0xca, 0xce, 0xe2, 0xc3, 0x7f, 0xcb, 0x48, 0x7a, 0x19, 0x53, 0xb4, 0x39, 0xcd, 0xac, 0x7d, 0x14, 0xbd, 0xda, 0xfe, 0xb7, 0x42, 0xef, 0x03, 0x82, 0x06, 0xa4, 0x01, 0xcf, 0x02, 0xfb, 0x03, 0x08, 0x8a, 0x24, 0xf9, 0x01, 0xd4, 0x38, 0xfb, 0x54, 0x55, 0x90, 0xd6, 0x01, 0xe9, 0x21, 0xec, 0x94, 0xeb, 0xfd, 0xb2, 0x96, 0x11, 0x22, 0xf4, 0xd6, 0xb9, 0x37, 0xfc, 0xdf, 0xdf, 0x37, 0xdf, 0x3f, 0xe3, 0xf7, 0x11, 0x7f, 0x68, 0xff, 0x61, 0x55, 0xa1, 0x1e, 0x62, 0xda, 0x21, 0xcf, 0x23, 0x77, 0x63, 0xbd, 0x4a, 0x9b, 0xca, 0xdf, 0x03, 0x33, 0x47, 0x79, 0x21, 0x9b, 0xe5, 0x5b, 0x00, 0xc3, 0xdf, 0x19, 0x51, 0x30, 0x76, 0xc8, 0xb2, 0x2f, 0x08, 0x14, 0x87, 0x69, 0x05, 0xf0, 0x80, 0x96, 0x80, 0x12, 0x3b, 0x95, 0x34, 0xa3, 0xf7, 0xc6, 0xfe, 0x0c, 0xff, 0x02, 0xff, 0x37, 0xff, 0x1e, 0x9b, 0x0c, 0xef, 0xcd, 0xcc, 0xbc, 0x98, 0x82, 0x16, 0x73, 0x03, 0xab, 0x0e, 0x38, 0x0d, 0xc3, 0x04, 0x77, 0x0b, 0x10, 0x18, 0x8e, 0xba, 0xcc, 0xfe, 0xbd, 0x3f, 0x8a, 0x3f, 0x89, 0x3f, 0xff, 0x1b, 0x7f, 0xdc, 0x3f, 0xe3, 0xfe, 0xc4, 0xdf, 0xb1, 0xae, 0x42, 0x10, 0x41, 0xd9, 0x03, 0x76, 0x88, 0xb4, 0x53, 0x88, 0xa7, 0xf9, 0x55, 0x4f, 0x4e, 0x6c, 0x18, 0x08, 0x10, 0x80, 0x00, 0x35, 0xee, 0xfb, 0x95, 0x89, 0xe7, 0xaa, 0x11, 0x52, 0xd2, 0x4d, 0x57, 0x6f, 0x6b, 0x15, 0x69, 0xd6, 0x74, 0xfa, 0xe5, 0xac, 0x49, 0xc0, 0x19, 0x00, 0xcd, 0x40, 0xbf, 0x80, 0x26, 0x00, 0x9f, 0x84, 0x01, 0x91, 0xa5, 0xf2, 0xc1, 0x3e, 0x68, 0xc6, 0xf0, 0x22, 0xad, 0xc1, 0xd5, 0x2c, 0xf9, 0x2d, 0xf8, 0xfe, 0xea, 0xa0, 0xf2, 0x98, 0xf8, 0x87, 0xe8, 0x54, 0xe1, 0xfd, 0x00, 0xa4, 0x02, 0x8f, 0xff, 0x0f, 0xc5, 0xc3, 0xe3, 0xdf, 0x46, 0xa9, 0xab, 0x1d, 0x9d, 0x8c, 0x7a, 0x04, 0x66, 0x51, 0x20, 0x70, 0x20, 0x8e, 0x58, 0x13, 0x0c, 0x94, 0x1c, 0xed, 0x9b, 0x5f, 0xe4, 0x7b, 0x09, 0x58, 0x44, 0xe3, 0x8c, 0x18, 0x2e, 0x11, 0xa4, 0x3e, 0x8b, 0xa9, 0xab, 0xe9, 0x19, 0x14, 0x7a, 0x73, 0x04, 0x80, 0xe0, 0x80, 0x32, 0xfc, 0x4c, 0xfc, 0xeb, 0xff, 0x93, 0xff, 0x11, 0xff, 0x09, 0x5e, 0xc0, 0x9c, 0x68, 0xa0, 0x37, 0x30, 0x3f, 0x4a, 0x42, 0xb3, 0xc3, 0x3f, 0x3a, 0x0f, 0x1f, 0xbf, 0xb8, 0x0f, 0x8c, 0x0d, 0xd8, 0x06, 0x60, 0x04, 0x28, 0x05, 0x9a, 0x5d, 0x70, 0x72, 0x33, 0x0e, 0xa7, 0x0a, 0x2f, 0x05, 0x04, 0xb4, 0x2e, 0xb8, 0x11, 0x2a, 0xc4, 0x46, 0xab, 0xd3, 0x0d, 0x60, 0x30, 0x57, 0x71, 0x8a, 0xea, 0x74, 0xf8, 0xd4, 0xe2, 0x28, 0xf0, 0xe0, 0xf2, 0xc4, 0xe8, 0x36, 0xf8, 0x81, 0xfa, 0x30, 0xf6, 0xe8, 0xec, 0x2a, 0xac, 0x9f, 0x02, 0x99, 0xa5, 0x50, 0x06, 0x10, 0x06, 0xde, 0x04, 0xa2, 0x11, 0x2d, 0x05, 0xa6, 0x6f, 0x10, 0x1e, 0x46, 0x28, 0x8c, 0xd8, 0xd0, 0x8b, 0xf0, 0xcb, 0xf0, 0xcf, 0x60, 0x2f, 0xe0, 0xe3, 0x72, 0xca, 0x3f, 0x89, 0x1c, 0xdb, 0x0b, 0x65, 0xda, 0x5b, 0x57, 0xf7, 0x61, 0x12, 0xcd, 0x4d, 0xbc, 0xe6, 0x2e, 0x78, 0xe4, 0x21, 0x3c, 0x2a, 0x47, 0x94, 0x13, 0x9d, 0x65, 0x0a, 0xf4, 0x93, 0x28, 0xe1, 0x80, 0x62, 0x10, 0x8e, 0xe0, 0x8e, 0x54, 0x58, 0x6c, 0x21, 0x3d, 0x74, 0xff, 0x89, 0x7f, 0x21, 0xff, 0x94, 0xff, 0x4b, 0x30, 0x00, 0x80, 0x14, 0x04, 0x34, 0x68, 0x05, 0x44, 0x18, 0x34, 0xa9, 0x2c, 0x2b, 0x13, 0xdf, 0x93, 0xfa, 0xed, 0xb8, 0xbe, 0xd7, 0xf2, 0xec, 0x5f, 0xff, 0xd6, 0xc4, 0xef, 0xfc, 0xff, 0xf4, 0x44, 0xf9, 0x7c, 0xc3, 0xce, 0x2e, 0x86, 0xba, 0xff, 0x68, 0xd3, 0xf2, 0x11, 0x9f, 0x34, 0x01, 0xb8, 0x9d, 0x33, 0x5f, 0xbf, 0xeb, 0x2e, 0xf7, 0x0f, 0x24, 0x0b, 0xd0, 0x03, 0xc0, 0x03, 0xe0, 0xe4, 0x10, 0x14, 0xa5, 0x10, 0x51, 0x0d, 0x35, 0x94, 0x15, 0x59, 0x96, 0x74, 0x55, 0x32, 0x01, 0xc3, 0x08, 0x6c, 0x08, 0x40, 0xfc, 0x08, 0xfe, 0x9f, 0xff, 0x13, 0xfe, 0x8e, 0xff, 0x81, 0xff, 0xbf, 0xfa, 0xd7, 0xdf, 0xc7, 0x26, 0x4f, 0x50, 0x1b, 0x68, 0xbe, 0x71, 0x1a, 0xc0, 0x38, 0xa0, 0x52, 0xa0, 0x38, 0x20, 0x4f, 0x4a, 0x1a, 0x7a, 0xe4, 0xa0, 0x36, 0x2d, 0x67, 0x87, 0xbe, 0x49, 0x8e, 0xf9, 0xbf, 0x95, 0x1f, 0xf8, 0x37, 0xdc, 0x5d, 0xf9, 0xb2, 0x4b, 0x0b, 0x38, 0x0c, 0xe1, 0x06, 0xae, 0x05, 0x84, 0x14, 0x45, 0x4c, 0x81, 0x42, 0xfe, 0x50, 0xa9, 0xa0, 0x67, 0x00, 0xf7, 0x27, 0x60, 0x36, 0x80, 0x55, 0x98, 0xdc, 0xe3, 0xa4, 0xb5, 0x9f, 0xd5, 0xa6, 0x1b, 0x09, 0xa7, 0x29, 0x38, 0xf5, 0x49, 0x5b, 0x5c, 0xbf, 0x70, 0xff, 0xd4, 0xbf, 0xa8, 0x7f, 0xba, 0xff, 0xcf, 0xa8, 0x62, 0x6d, 0x5b, 0xb7, 0xbf, 0x3a, 0x34, 0x96, 0x9c, 0xba, 0xb6, 0xc4, 0xf6, 0x57, 0xf6, 0x73, 0x17, 0x4d, 0x11, 0xa3, 0x0b, 0x3e, 0x0b, 0x2a, 0x07, 0xe8, 0x07, 0x5c, 0x01, 0xaf, 0x03, 0x63, 0x1c, 0x1a, 0x2b, 0xdc, 0xa4, 0x59, 0xf4, 0x4d, 0x87, 0x82, 0x59, 0xf4, 0x03, 0x36, 0x32, 0xaa, 0x1e, 0x5c, 0xe8, 0x02, 0xd8, 0x0b, 0xf8, 0x14, 0xf0, 0x0f, 0xfa, 0x6f, 0xfc, 0xfd, 0xfe, 0x89, 0xf5, 0x6a, 0x1b, 0x31, 0xaa, 0xe7, 0xcd, 0x7f, 0x31, 0x0b, 0xcf, 0xd9, 0x6f, 0x44, 0x68, 0x9f, 0x68, 0xf7, 0x61, 0xd8, 0xf1, 0xe8, 0x5f, 0x80, 0x4d, 0x80, 0x2a, 0x80, 0x4f, 0x80, 0xe5, 0xe5, 0xb1, 0x25, 0x9a, 0xfc, 0x6b, 0x18, 0xba, 0x9f, 0x8c, 0x05, 0x4f, 0xea, 0xd2, 0x7b, 0xd4, 0xe7, 0x36, 0xe3, 0x49, 0x63, 0x2c, 0xe0, 0x98, 0x80, 0x35, 0x00, 0x7e, 0x80, 0xfe, 0x80, 0xff, 0x9f, 0xd1, 0x0f, 0x85, 0x2f, 0x83, 0x23, 0xbb, 0x47, 0xa7, 0xc2, 0xc1, 0x08, 0x8e, 0x48, 0xcc, 0xa7, 0x11, 0x51, 0xd2, 0xf0, 0x52, 0xdf, 0x5d, 0x09, 0xe6, 0x26, 0xc1, 0x80, 0x02, 0xa8, 0x85, 0xd8, 0xff, 0xc4, 0xd7, 0x60, 0xd3, 0x3e, 0xda, 0x38, 0x4f, 0x4c, 0xb7, 0x42, 0xbe, 0x2a, 0xec, 0x82, 0xfd, 0x94, 0x75, 0x5a, 0xaf, 0x76, 0x7a, 0x18, 0x48, 0x04, 0x1d, 0x00, 0xc9, 0x93, 0xcb, 0x77, 0x22, 0x6f, 0x11, 0xe4, 0x02, 0xdd, 0x23, 0xbf, 0x61, 0xe1, 0x3c, 0xa8, 0x33, 0x37, 0x42, 0xf2, 0x07, 0xc3, 0x22, 0x71, 0x40, 0xb0, 0xc3, 0xe7, 0xb9, 0xf5, 0x08, 0x7f, 0x01, 0xff, 0x00, 0x00, 0x0f, 0x90, 0x74, 0x40, 0xb7, 0x8e, 0x94, 0xa0, 0x92, 0x57, 0xdd, 0x0e, 0x3c, 0xa7, 0xfa, 0x20, 0xf7, 0x10, 0xde, 0x2a, 0xba, 0x30, 0xd6, 0x4f, 0x42, 0x57, 0xfe, 0xbf, 0xce, 0xff, 0xdf, 0xa7, 0xf7, 0x8f, 0xa6, 0x6c, 0xa3, 0xbc, 0x75, 0x1c, 0xcb, 0x16, 0x6e, 0xcc, 0xe9, 0xfd, 0x9b, 0x12, 0xcb, 0x5f, 0x95, 0xaf, 0x17, 0x03, 0xe9, 0x01, 0xba, 0x00, 0xf4, 0x00, 0x5c, 0x00, 0xe7, 0x94, 0x85, 0x13, 0xce, 0x5c, 0xa9, 0x36, 0xab, 0x9c, 0x3c, 0x21, 0x22, 0xdc, 0x25, 0xa8, 0x65, 0x36, 0x9c, 0xc8, 0x75, 0x0a, 0xe4, 0x78, 0xf0, 0x76, 0xf0, 0x26, 0xf8, 0x3d, 0xf8, 0x0d, 0xfd, 0x08, 0x18, 0x2d, 0x69, 0x6f, 0x7e, 0x24, 0xa5, 0x31, 0xc5, 0xb2, 0xa8, 0x2e, 0xb8, 0x26, 0xd2, 0x5e, 0xe1, 0x7f, 0x00, 0xb7, 0xaa, 0xb7, 0xe9, 0x48, 0xc3, 0xe4, 0xc7, 0x20, 0xbc, 0x00, 0xfa, 0xb4, 0xb0, 0x8c, 0x00, 0xe9, 0x0a, 0xa7, 0xe1, 0x6c, 0x7a, 0xe8, 0xf7, 0xb6, 0xf8, 0x26, 0xfc, 0x0f, 0xf7, 0x09, 0x4e, 0x02, 0x4e, 0x05, 0x12, 0x8b, 0x50, 0x06, 0xc3, 0xfb, 0x3e, 0x76, 0x8f, 0x9e, 0x34, 0x4a, 0x71, 0xd2, 0xa2, 0x65, 0x19, 0xa3, 0x3e, 0x5d, 0xea, 0xd8, 0xd1, 0x52, 0x07, 0xd5, 0xd6, 0x25, 0xad, 0x39, 0x26, 0x1f, 0xb9, 0x0f, 0xe4, 0x2f, 0x40, 0x1f, 0xe0, 0x0f, 0x50, 0x3f, 0x34, 0xcb, 0x04, 0xad, 0xff, 0x69, 0x73, 0xad, 0x66, 0x1c, 0xc2, 0x80, 0x8c, 0xa9, 0x5d, 0xf9, 0xb6, 0x5f, 0x81, 0x75, 0x3d, 0x7f, 0xff, 0x28, 0x2c, 0x00, 0xb1, 0x00, 0x00, 0x00, 0x00, 0x00, 0xce, 0x40, 0x4d, 0xe0, 0x5a, 0x84, 0xc1, 0xb1, 0xf7, 0xb0, 0x03, 0xe8, 0xaf, 0xef, 0xcf, 0xaa, 0x81, 0x4f, 0xf3, 0x0a, 0xd5, 0x92, 0xf6, 0xd9, 0x48, 0xbb, 0x87, 0x4b, 0xca, 0xdd, 0xfb, 0x22, 0x60, 0x3f, 0x08, 0x3f, 0x78, 0x80, 0x30, 0xe5, 0x60, 0x4c, 0x8d, 0xdc, 0xd1, 0x5b, 0x32, 0xe7, 0x66, 0xf6, 0x70, 0xd5, 0x08, 0x7f, 0x78, 0x7f, 0xb2, 0x3f, 0x24, 0xff, 0x2b, 0xff, 0xd6, 0x47, 0xbb, 0x96, 0x30, 0xcd, 0xe7, 0x09, 0x06, 0x99, 0x97, 0xda, 0xe0, 0xdc, 0x36, 0xf3, 0xcc, 0x18, 0xf1, 0x52, 0xf0, 0x36, 0xe0, 0x1e, 0xe0, 0xc7, 0xf0, 0xf0, 0x88, 0xb8, 0x41, 0x2e, 0xc9, 0xff, 0xf9, 0x79, 0x7f, 0x03, 0x8d, 0xef, 0xe2, 0x52, 0xe5, 0xed, 0x65, 0xbb, 0x9d, 0x34, 0xe7, 0x4f, 0xbd, 0x63, 0xfc, 0xbf, 0x1e, 0xb1, 0x27, 0x5b, 0x05, 0xcc, 0x05, 0xf2, 0x01, 0xf7, 0x01, 0x55, 0x62, 0xf4, 0x5c, 0xc9, 0x3f, 0x9f, 0x30, 0xa6, 0x4c, 0x29, 0xa5, 0xd4, 0xfb, 0xd7, 0xda, 0x1d, 0x11, 0x68, 0x8d, 0xf4, 0x51, 0x40, 0xa6, 0x80, 0xe3, 0x80, 0xff, 0xc0, 0xfb, 0x80, 0xfe, 0xfd, 0xfc, 0xc6, 0xf7, 0x17, 0xf3, 0x90, 0x74, 0xb1, 0x80, 0xf9, 0x13, 0x9b, 0x00, 0x96, 0x03, 0xe7, 0x03, 0xce, 0x3e, 0x82, 0x04, 0x30, 0xf7, 0x97, 0xbd, 0x3e, 0xaa, 0xeb, 0x2e, 0x16, 0x3f, 0x2a, 0xff, 0x0a, 0xfd, 0x1f, 0xf1, 0x7e, 0xf3, 0xb8, 0x4d, 0xec, 0x00, 0x80, 0xa2, 0x60, 0x7f, 0xf0, 0xc6, 0x20, 0xbb, 0xb8, 0x1a, 0x38, 0xd4, 0x6c, 0x4b, 0x2a, 0x99, 0xe3, 0xe3, 0xde, 0xd9, 0xeb, 0xaf, 0xcd, 0xaf, 0xf4, 0x37, 0x79, 0x99, 0xde, 0xdb, 0xc0, 0x5c, 0x50, 0x7c, 0x20, 0x2f, 0xa0, 0xa4, 0x9c, 0x9f, 0x41, 0x1a, 0x91, 0xad, 0x2a, 0x1d, 0xa8, 0x05, 0x02, 0x09, 0x08, 0x00, 0x00, 0x7e, 0x40, 0xbe, 0x11, 0x9f, 0x68, 0x6a, 0xff, 0x4b, 0xde, 0x28, 0xb7, 0xb1, 0xca, 0xca, 0x3a, 0xfd, 0x01, 0x97, 0xd7, 0xb6, 0xbf, 0x08, 0xa1, 0xcd, 0x74, 0x5b, 0x9d, 0xf5, 0xbb, 0xa9, 0xc4, 0x9e, 0xdf, 0x5f, 0x8f, 0x68, 0xcd, 0x34, 0xe9, 0xc1, 0xc8, 0xb6, 0x17, 0xdc, 0xd5, 0xfb, 0xd7, 0x3b, 0xf0, 0xa4, 0x47, 0x11, 0x3b, 0x00, 0x62, 0x01, 0xef, 0x05, 0xe5, 0x03, 0xe1, 0x07, 0x1f, 0x00, 0x1f, 0xc0, 0x5e, 0x40, 0x6e, 0xd0, 0x4e, 0xef, 0xc8, 0xef, 0x8a, 0xf2, 0xd3, 0xf0, 0xf4, 0x4a, 0xef, 0xde, 0x48, 0x43, 0x2a, 0xd3, 0x55, 0x40, 0xcc, 0xdb, 0x9d, 0x3e, 0x6e, 0x5d, 0x1c, 0x3e, 0xca, 0x5f, 0xd5, 0x1f, 0x19, 0x3e, 0x30, 0x9e, 0xf0, 0x2a, 0x74, 0x64, 0x08, 0x1d, 0xa0, 0x66, 0x51, 0xfb, 0xdc, 0x69, 0x3c, 0xa3, 0x1f, 0x7b, 0x07, 0x63, 0xe7, 0xc5, 0xcd, 0x48, 0x06, 0x10, 0x74, 0x48, 0x1e, 0xeb, 0xf3, 0xec, 0x59, 0x69, 0xa9, 0x83, 0x49, 0xa6, 0xe3, 0x0a, 0x7f, 0x27, 0x45, 0x11, 0x1f, 0x47, 0x7f, 0xf2, 0x9f, 0xde, 0x7f, 0xe9, 0xff, 0x7b, 0xff, 0xcc, 0x14, 0x40, 0x91, 0x09, 0x9a, 0x0f, 0x94, 0xe8, 0x8e, 0x79, 0xc8, 0x18, 0xd9, 0x65, 0x93, 0x81, 0x0e, 0x4a, 0x51, 0x0a, 0xa8, 0x35, 0x05, 0xce, 0xe7, 0x8f, 0xe0, 0xff, 0xe4, 0xff, 0xf8, 0xff, 0xbf, 0x93, 0x16, 0xa7, 0xfe, 0xa9, 0x60, 0x2c, 0x74, 0xf0, 0x60, 0x93, 0x60, 0x7d, 0x60, 0xfd, 0x64, 0x53, 0xda, 0x00, 0x68, 0xc5, 0x56, 0x7e, 0x19, 0x2b, 0xfd, 0x79, 0x24, 0x4d, 0x93, 0x05, 0xee, 0xa3, 0x30, 0xa9, 0x56, 0x78, 0x0b, 0x5b, 0xdf, 0x3d, 0x30, 0x01, 0xe1, 0xb3, 0xf1, 0x6c, 0x0b, 0x2b, 0xc3, 0xf9, 0x3f, 0x6c, 0x3f, 0x3a, 0x0f, 0xb8, 0x0f, 0x20, 0x0f, 0x40, 0x07, 0x20, 0x33, 0xfd, 0xaf, 0xfe, 0xb1, 0xf9, 0xf9, 0x89, 0x2e, 0x43, 0x9d, 0xb0, 0x63, 0x6b, 0xdb, 0x73, 0x1a, 0xbe, 0xd2, 0x6e, 0xee, 0xd9, 0x6b, 0x8f, 0x8f, 0x85, 0x0d, 0x00, 0x0d, 0x00, 0x0e, 0x00, 0x73, 0x43, 0x51, 0xd4, 0x18, 0x8f, 0xd9, 0xbd, 0x96, 0x30, 0x3f, 0xde, 0xa4, 0x40, 0x90, 0x3d, 0xcf, 0x07, 0x12, 0x38, 0x4b, 0x07, 0xe8, 0xcf, 0xea, 0xdf, 0xeb, 0x17, 0xe3, 0xdf, 0xe4, 0x6f, 0xd6, 0xa4, 0xe2, 0xdc, 0xfb, 0xc4, 0x2e, 0xe6, 0xde, 0x1e, 0x91, 0x9a, 0x19, 0xbf, 0x8d, 0x5f, 0xdd, 0xde, 0x16, 0x3f, 0x87, 0x0d, 0xed, 0x0e, 0x3c, 0x10, 0x52, 0x07, 0xdd, 0x07, 0x14, 0x03, 0x86, 0xfe, 0x2d, 0x7f, 0xe4, 0xfe, 0x64, 0xfd, 0x67, 0xff, 0xdb, 0x0c, 0x8a, 0x6c, 0x1c, 0x40, 0x83, 0x87, 0x03, 0x6e, 0x04, 0x5d, 0x80, 0x1e, 0x44, 0x25, 0x6f, 0x33, 0x4e, 0x41, 0xcf, 0x4c, 0xe9, 0xb6, 0x33, 0x15, 0x73, 0xbc, 0xa6, 0xa5, 0x46, 0x27, 0xdf, 0x72, 0xd0, 0xc2, 0x2b, 0xfb, 0x6b, 0xf3, 0x56, 0xf5, 0x68, 0xf1, 0x5d, 0xf8, 0x1b, 0xe0, 0x3a, 0xe0, 0x35, 0xe0, 0x1a, 0xe0, 0x80, 0x16, 0xec, 0xe9, 0xd0, 0xbc, 0xc1, 0x38, 0x6d, 0x02, 0xfd, 0xe1, 0x9b, 0x82, 0x14, 0x6e, 0x45, 0xfb, 0x97, 0xff, 0xc2, 0xfe, 0x55, 0xf1, 0xd5, 0x77, 0x79, 0x80, 0x8d, 0x80, 0x5d, 0x00, 0x06, 0x38, 0x0b, 0x48, 0x18, 0xc6, 0x37, 0x51, 0x31, 0x7c, 0x34, 0x72, 0xf5, 0x07, 0xe0, 0x4b, 0xf0, 0x57, 0xf9, 0x4f, 0xfa, 0xc1, 0x65, 0x19, 0x80, 0xdc, 0x0d, 0x00, 0xda, 0xcf, 0x13, 0xf8, 0x03, 0xfe, 0x24, 0xfe, 0x52, 0xfe, 0xb9, 0xff, 0x1a, 0xa1, 0xa2, 0x80, 0x92, 0x10, 0x97, 0x3d, 0x5a, 0xa8, 0x50, 0x02, 0x02, 0x2f, 0xfe, 0x3b, 0x88, 0x7c, 0xcd, 0x40, 0x0c, 0x28, 0xa4, 0x60, 0x32, 0x4f, 0x2d, 0x51, 0x92, 0x98, 0xac, 0xfe, 0xd7, 0x31, 0xa4, 0x12, 0x40, 0x07, 0xef, 0x84, 0x50, 0x39, 0x8f, 0xe9, 0x76, 0xfc, 0x3c, 0xf9, 0x33, 0xfe, 0x40, 0xfe, 0x00, 0xfa, 0x00, 0xfe, 0x41, 0xa5, 0xb4, 0x90, 0xb0, 0x97, 0xd3, 0x82, 0x73, 0x72, 0x03, 0xe5, 0x1e, 0x59, 0x93, 0x73, 0xc1, 0x2d, 0x6b, 0x88, 0x08, 0x09, 0xcd, 0xc1, 0xf0, 0x8f, 0xf4, 0x17, 0xf1, 0x57, 0xf0, 0x9f, 0xd3, 0x51, 0x1a, 0xb9, 0x11, 0x8e, 0xf6, 0x5f, 0xdd, 0xda, 0x05, 0x60, 0xd8, 0xa0, 0xc8, 0x80, 0xf9, 0xc0, 0x9d, 0xe0, 0xfe, 0xc7, 0xf0, 0xbf, 0x9d, 0xe0, 0x18, 0xf3, 0x28, 0x2f, 0xe0, 0x60, 0xed, 0x69, 0xc6, 0xf9, 0x5a, 0xe7, 0x2e, 0x1a, 0x65, 0x10, 0x4d, 0xdf, 0x67, 0xfe, 0xd8, 0x8a, 0x4b, 0x77, 0x9d, 0x15, 0x91, 0x11, 0x3f, 0x0e, 0xe9, 0x04, 0xf2, 0x07, 0xca, 0x05, 0x2b, 0x00, 0x96, 0xf2, 0x73, 0x0a, 0x48, 0x26, 0x79, 0x6e, 0x0e, 0x49, 0x6c, 0x7d, 0x79, 0x93, 0x10, 0x90, 0x41, 0xb4, 0x77, 0x4d, 0xa4, 0x47, 0xda, 0x87, 0xeb, 0x0f, 0xb6, 0x7f, 0xc0, 0x7f, 0xc2, 0x7f, 0xb1, 0x00, 0x3d, 0x00, 0xd1, 0x88, 0xdd, 0xd0, 0x75, 0xf2, 0x44, 0xff, 0xab, 0xfd, 0xd5, 0xfd, 0x53, 0xa8, 0x22, 0xe1, 0xd7, 0x8a, 0xba, 0x34, 0xeb, 0x51, 0x29, 0x4d, 0x59, 0x35, 0xc2, 0xfd, 0x0f, 0xdc, 0x3a, 0xa8, 0xcf, 0xbf, 0x83, 0xbe, 0x5b, 0xfd, 0x66, 0x3f, 0x2f, 0xd6, 0x24, 0x98, 0x10, 0x40, 0x0a, 0x26, 0x20, 0x75, 0x99, 0x88, 0xaa, 0x6d, 0x42, 0x75, 0x98, 0x75, 0x00, 0x69, 0x3b, 0x73, 0xdf, 0xe7, 0xcb, 0xdf, 0x9a, 0xa4, 0xb8, 0x51, 0xcb, 0xfc, 0x96, 0x1d, 0x2f, 0xc5, 0xbf, 0xfd, 0x7f, 0xbe, 0xff, 0xb9, 0x33, 0x6f, 0x3f, 0x06, 0x28, 0x00, 0xd4, 0x00, 0x76, 0x00, 0x22, 0xea, 0x9f, 0xbc, 0xf0, 0x2a, 0x64, 0x3d, 0x37, 0x10, 0x1c, 0x1f, 0x99, 0x02, 0x21, 0x07, 0x90, 0x15, 0xe7, 0x03, 0x37, 0x1f, 0xef, 0x32, 0x23, 0xd8, 0x90, 0xb1, 0x80, 0xc9, 0xa0, 0xf6, 0xd0, 0x54, 0x46, 0x64, 0x6d, 0xac, 0x96, 0x83, 0x44, 0x3c, 0xb6, 0xe3, 0x60, 0x08, 0xe1, 0x36, 0x3a, 0x2c, 0x17, 0x19, 0x77, 0xde, 0x27, 0xcb, 0x2f, 0x14, 0x1f, 0x50, 0x0f, 0xb8, 0x0f, 0x24, 0xb8, 0xfb, 0xf1, 0xaf, 0x16, 0x34, 0x97, 0xa0, 0x4f, 0x93, 0xd9, 0x14, 0xe6, 0xcf, 0xa2, 0xaf, 0xc0, 0xdf, 0xc0, 0x4b, 0xc0, 0x78, 0x00, 0x26, 0xe0, 0x11, 0xe0, 0xbc, 0x75, 0x44, 0xff, 0x97, 0xbc, 0x98, 0x9b, 0x6e, 0x6a, 0x93, 0x27, 0xe3, 0x90, 0x9e, 0x3d, 0x4f, 0x52, 0xc6, 0x7f, 0xae, 0xa2, 0x9f, 0x2f, 0x14, 0x1d, 0xc5, 0x84, 0x92, 0x03, 0xef, 0x01, 0x5c, 0x00, 0x2f, 0x00, 0xe9, 0x1c, 0x51, 0x10, 0x66, 0x37, 0x12, 0x50, 0xa3, 0xb9, 0x9e, 0x29, 0xca, 0xab, 0x1a, 0xc8, 0x24, 0x90, 0x98, 0x19, 0x46, 0xc7, 0xbe, 0xaf, 0x5a, 0x7f, 0x22, 0x3f, 0x49, 0xbf, 0x48, 0xff, 0xf8, 0xdb, 0x96, 0xb6, 0x19, 0x0c, 0xe9, 0xc2, 0x96, 0xdf, 0x7a, 0x28, 0xc3, 0x6a, 0x14, 0xf5, 0x31, 0xa4, 0xc8, 0x8d, 0xff, 0x83, 0x6e, 0xaf, 0x3b, 0x1f, 0x0d, 0x3f, 0x02, 0xff, 0x00, 0x5f, 0x00, 0xfb, 0x1e, 0xc0, 0x2d, 0x9d, 0x24, 0xb4, 0x07, 0xa5, 0x05, 0x11, 0xb4, 0xf2, 0x96, 0xf1, 0x2d, 0x7c, 0x3a, 0xce, 0xab, 0xf8, 0x7e, 0xfa, 0xcb, 0x72, 0x0f, 0x24, 0xa1, 0x21, 0x08, 0x00, 0x00, 0x3f, 0x2a, 0xac, 0x24, 0xce, 0x59, 0xc0, 0x0e, 0x6e, 0x06, 0xc9, 0x39, 0xe7, 0x5f, 0xe5, 0x6f, 0x50, 0x0f, 0x65, 0x97, 0xe1, 0xa2, 0x53, 0x95, 0x05, 0xb9, 0x5e, 0x14, 0x3f, 0x05, 0xff, 0x02, 0x8f, 0xe9, 0xb9, 0x45, 0x70, 0xe8, 0xeb, 0xbf, 0x52, 0x5b, 0x2b, 0x0e, 0x1f, 0x79, 0x1e, 0xb0, 0x24, 0xf8, 0x02, 0x34, 0x19, 0x68, 0x9f, 0x04, 0x3e, 0x35, 0xff, 0xff, 0xff, 0xff, 0x7f, 0xfe, 0xa3, 0xab, 0x26, 0x36, 0x34, 0x22, 0xf6, 0x9b, 0xe6, 0xf0, 0x45, 0x4d, 0x18, 0xb1, 0x52, 0x06, 0xb5, 0x3f, 0x8f, 0xb9, 0x87, 0xcd, 0x37, 0x40, 0x0f, 0xe0, 0x17, 0x00, 0x0f, 0x00, 0x0f, 0x00, 0xdd, 0x96, 0xbb, 0xd2, 0x28, 0x67, 0x87, 0x4f, 0x6c, 0xf1, 0x1e, 0xcc, 0xd6, 0x5c, 0x78, 0xf9, 0x6c, 0x96, 0x39, 0x25, 0x56, 0x2f, 0x87, 0x0d, 0x78, 0x0b, 0xd6, 0x0e, 0x83, 0x05, 0x3f, 0x03, 0xed, 0xc0, 0x25, 0xc0, 0xa4, 0x21, 0xe9, 0xe1, 0x54, 0xcd, 0x6d, 0xcd, 0x89, 0x73, 0x4c, 0x9b, 0x8f, 0x91, 0x9e, 0x68, 0x40, 0x72, 0x58, 0x23, 0xcc, 0x96, 0xf8, 0x1b, 0xf8, 0x13, 0xfc, 0x37, 0xbe, 0x21, 0xcf, 0x30, 0xa2, 0xe7, 0x46, 0x39, 0xbc, 0x7f, 0xd7, 0xfd, 0x15, 0x2d, 0x92, 0x2c, 0xf8, 0x25, 0xb7, 0x22, 0xfe, 0xfc, 0x6b, 0xfc, 0x0e, 0x70, 0x1d, 0xf8, 0x03, 0x40, 0x07, 0xd8, 0xfd, 0x8f, 0xf4, 0xca, 0xf3, 0x73, 0xb7, 0x68, 0xc4, 0x23, 0x20, 0xe8, 0xc0, 0x99, 0x50, 0x9e, 0x50, 0x3b, 0x50, 0x91, 0xea, 0x93, 0x6e, 0xf2, 0x77, 0x25, 0xad, 0x35, 0xb0, 0xe8, 0x4b, 0xed, 0xd7, 0x5d, 0xb7, 0x34, 0xaf, 0x56, 0xf3, 0xf0, 0x8e, 0x1c, 0xd0, 0x2c, 0xbc, 0xf1, 0x9f, 0xfe, 0x8e, 0xab, 0xc6, 0x11, 0xe0, 0x06, 0x47, 0x01, 0x43, 0x08, 0xdf, 0x01, 0xbf, 0x03, 0xff, 0x03, 0x24, 0x8d, 0x41, 0x68, 0xa0, 0xfd, 0x39, 0xf6, 0x14, 0xe4, 0x12, 0x0b, 0x7c, 0x3a, 0x4a, 0xb5, 0x90, 0xff, 0x00, 0xd0, 0x0a, 0x78, 0x94, 0x18, 0x23, 0x6d, 0x3f, 0xbb, 0x7f, 0xfb, 0x7f, 0xaf, 0xad, 0xb3, 0xbb, 0xc0, 0xa5, 0x09, 0x91, 0x7d, 0xb9, 0xfe, 0x5a, 0x3e, 0x97, 0x3c, 0x7b, 0x68, 0x69, 0x00, 0xd1, 0x03, 0xa0, 0x02, 0xef, 0x09, 0x33, 0x07, 0x33, 0x0f, 0xcb, 0x0f, 0x94, 0xbe, 0x7f, 0xf3, 0xd3, 0xad, 0xd9, 0xcd, 0xa7, 0xdb, 0xdb, 0xf7, 0x5f, 0xbe, 0x31, 0x08, 0x01, 0x2c, 0x00, 0x0d, 0x89, 0x15, 0x9a, 0x21, 0xe0, 0x08, 0xd0, 0x06, 0x34, 0x30, 0x0a, 0x12, 0x00, 0x04, 0xff, 0x60, 0x7f, 0x12, 0x3f, 0x6f, 0xbb, 0x08, 0x22, 0x72, 0x40, 0x2b, 0x62, 0x30, 0xc0, 0x84, 0x99, 0x4d, 0x4c, 0x6d, 0x7d, 0x2a, 0x2e, 0x90, 0x10, 0x31, 0xa2, 0x57, 0x52, 0x4a, 0x60, 0x02, 0x20, 0x67, 0x40, 0x4a, 0xf1, 0x72, 0xd4, 0x54, 0xbb, 0x04, 0x5e, 0x77, 0x4f, 0xcc, 0x50, 0xc8, 0x86, 0x8d, 0x21, 0x35, 0xae, 0x3c, 0xf0, 0x81, 0xe8, 0xbb, 0xf8, 0x1b, 0xf8, 0x23, 0xea, 0x77, 0xe6, 0x7d, 0xe6, 0x21, 0x2a, 0x91, 0x93, 0x9d, 0x93, 0xf2, 0x22, 0x39, 0xdc, 0x34, 0x1f, 0x0f, 0xa3, 0x03, 0xe8, 0x07, 0xe8, 0x17, 0xc3, 0x03, 0xcd, 0x0b, 0x2a, 0x6d, 0x0f, 0x74, 0xdb, 0x3a, 0xa0, 0x9a, 0x70, 0x00, 0xc0, 0x8b, 0x50, 0x38, 0xdf, 0x7b, 0x1b, 0xb0, 0x1b, 0x80, 0x90, 0x0e, 0xa2, 0x4b, 0x9b, 0xe4, 0xc0, 0x93, 0xe9, 0x21, 0xc1, 0x6f, 0xf8, 0x07, 0xe5, 0x13, 0xf9, 0x1f, 0x55, 0x02, 0xea, 0x03, 0x23, 0x03, 0x7e, 0x15, 0x27, 0x3f, 0x88, 0x5f, 0x4e, 0x79, 0xb6, 0x58, 0xea, 0xe7, 0xda, 0x31, 0x4e, 0x28, 0x3c, 0x63, 0x93, 0xb0, 0x3a, 0xfc, 0xc9, 0xff, 0xdb, 0xfd, 0x37, 0x4b, 0xbf, 0x86, 0x36, 0x1e, 0x3a, 0xa7, 0xe0, 0xf0, 0xa0, 0xfa, 0xe0, 0xf2, 0xe8, 0xf2, 0x6e, 0xe0, 0xb6, 0xe5, 0xe6, 0xdc, 0x6e, 0xe9, 0x97, 0x54, 0x2a, 0x47, 0x54, 0x0f, 0x10, 0xf3, 0xd1, 0x23, 0xaf, 0xbd, 0x79, 0x65, 0x83, 0x3a, 0x7e, 0x3c, 0x78, 0x54, 0x2d, 0xfb, 0x6f, 0xfe, 0x60, 0x7c, 0x8f, 0xa7, 0xed, 0x1d, 0x91, 0x1b, 0x16, 0x02, 0xfe, 0x03, 0xe6, 0x00, 0xfe, 0x01, 0x9c, 0xfe, 0x77, 0xcb, 0x93, 0xe5, 0xfc, 0x67, 0xb7, 0x5a, 0x06, 0x71, 0x5f, 0xce, 0x64, 0x9f, 0xc7, 0x65, 0xf8, 0x73, 0xd7, 0xcb, 0x3f, 0xba, 0x1f, 0xf8, 0x06, 0xe8, 0x04, 0xd0, 0x02, 0xc0, 0x40, 0xde, 0x18, 0xdc, 0x14, 0xef, 0x8a, 0xdc, 0x5a, 0x32, 0x6e, 0xab, 0x86, 0x51, 0x8d, 0xff, 0x05, 0x52, 0x42, 0x7e, 0x2b, 0x7e, 0x0e, 0xf8, 0x13, 0x8d, 0x9e, 0xba, 0xff, 0xdf, 0xff, 0xbb, 0x8f, 0x8a, 0xbf, 0xbe, 0xc7, 0xc8, 0x53, 0x6e, 0xa7, 0x49, 0xa3, 0x3f, 0x93, 0x00, 0xca, 0x1c, 0x3e, 0x07, 0xc4, 0x0d, 0x8c, 0x1a, 0x8c, 0x1f, 0x5f, 0x08, 0xb1, 0x2d, 0xa7, 0x69, 0x4f, 0xfc, 0x42, 0x02, 0xc6, 0x86, 0x0a, 0x85, 0xbe, 0x5a, 0x4c, 0xe3, 0x80, 0xd0, 0x88, 0x4d, 0x58, 0x71, 0x5b, 0x03, 0x2f, 0x9a, 0x1f, 0x0c, 0x4f, 0x67, 0x9f, 0x7c, 0x2f, 0x86, 0x3f, 0x91, 0x5f, 0x74, 0x32, 0xee, 0x05, 0xdf, 0xcc, 0xc6, 0x96, 0x24, 0xa8, 0x60, 0x62, 0x82, 0xee, 0x01, 0x80, 0x80, 0x65, 0xb0, 0xd5, 0xa1, 0xa4, 0xaa, 0xd5, 0xec, 0x40, 0x99, 0x8e, 0x47, 0x2e, 0x8a, 0x0a, 0x09, 0xac, 0xd9, 0x53, 0xff, 0xf3, 0xb1, 0x2e, 0x99, 0xed, 0x92, 0x8f, 0x5f, 0x55, 0x31, 0x63, 0xfa, 0x66, 0xed, 0x7e, 0xfd, 0x63, 0xdf, 0xf3, 0xc1, 0xb1, 0x80, 0xf7, 0x80, 0x67, 0x00, 0x9f, 0x00, 0x9d, 0xd2, 0x3e, 0xdc, 0xf8, 0x26, 0x45, 0x1d, 0x20, 0x61, 0xb3, 0x92, 0xd3, 0xef, 0x81, 0x59, 0x48, 0x45, 0xbb, 0x8e, 0x57, 0x92, 0x2f, 0x48, 0x3f, 0xfb, 0x6f, 0xf5, 0x1f, 0xfb, 0x0f, 0xf0, 0xfb, 0x57, 0xfc, 0xfb, 0xf6, 0x21, 0x7c, 0x19, 0x70, 0xd4, 0x9c, 0xc9, 0x00, 0xfa, 0xd0, 0x42, 0xa0, 0x3f, 0xd3, 0x22, 0xd1, 0xb9, 0x57, 0x72, 0xfa, 0x55, 0xb9, 0x42, 0x55, 0x5a, 0x25, 0xfa, 0xf1, 0x22, 0x0b, 0x81, 0xe5, 0x09, 0x62, 0xb9, 0xce, 0x78, 0xf2, 0xb9, 0x67, 0xf8, 0x64, 0xfc, 0x05, 0xfb, 0x7c, 0xfc, 0xb1, 0xf1, 0x97, 0x8d, 0xc4, 0xa0, 0xd4, 0x28, 0x76, 0x60, 0x66, 0x31, 0xeb, 0xa3, 0xaa, 0xe9, 0xd7, 0xff, 0x1a, 0x45, 0xa3, 0x2a, 0x9d, 0x8e, 0xf6, 0xb0, 0xd4, 0xf2, 0x5d, 0xff, 0x15, 0x5e, 0x15, 0x13, 0xca, 0x05, 0xf7, 0x03, 0xe9, 0x01, 0xa5, 0x01, 0xd7, 0x00, 0xf1, 0xca, 0xff, 0xcd, 0x46, 0xa9, 0x24, 0xbe, 0x87, 0x16, 0xfd, 0xe0, 0x67, 0xcf, 0xdf, 0xd7, 0x2b, 0x98, 0xea, 0x69, 0xe0, 0xc6, 0x00, 0xf7, 0xe0, 0x30, 0xc0, 0x99, 0xc0, 0xbf, 0xc0, 0xa9, 0x3f, 0x7f, 0x42, 0x77, 0x7e, 0x54, 0xca, 0xa5, 0xdd, 0xf3, 0x5b, 0x6f, 0x19, 0xc3, 0x6b, 0xe9, 0x99, 0xee, 0xae, 0xcf, 0xae, 0xae, 0x67, 0x4e, 0x6d, 0x12, 0xfc, 0x07, 0xa8, 0x07, 0x6c, 0x02, 0x75, 0xb5, 0xb4, 0xfa, 0x97, 0x31, 0xd7, 0xc7, 0xc5, 0x3d, 0x92, 0xd3, 0xbb, 0x7a, 0x1b, 0x30, 0x76, 0x88, 0xfb, 0xff, 0xe8, 0xfb, 0xa0, 0x83, 0x60, 0xa2, 0xc0, 0x8e, 0xe0, 0xde, 0x80, 0xf6, 0x9c, 0xb1, 0x00, 0x0d, 0xca, 0xf1, 0x60, 0x2a, 0x87, 0xfb, 0x83, 0x21, 0x42, 0x86, 0x3c, 0xb2, 0x2c, 0xbd, 0x03, 0xfb, 0xfd, 0xfc, 0x5f, 0xf9, 0x09, 0xfd, 0x22, 0xfc, 0xd6, 0xfe, 0x6f, 0xfe, 0x2d, 0x2d, 0xc5, 0xb1, 0xf4, 0x28, 0x62, 0x73, 0x1b, 0x4c, 0x59, 0xbe, 0xa3, 0xe0, 0xe5, 0x9f, 0x87, 0xcb, 0xf9, 0x01, 0x0c, 0x00, 0x55, 0x01, 0xa9, 0x04, 0xc9, 0x07, 0xe4, 0xf7, 0xd1, 0xff, 0xc8, 0xa3, 0xd2, 0xb7, 0xa5, 0x47, 0xf7, 0x27, 0xe1, 0x07, 0xd3, 0x86, 0x40, 0x79, 0xae, 0x83, 0x86, 0xb9, 0xd5, 0xbd, 0xf7, 0xde, 0xde, 0xdf, 0x09, 0x85, 0x28, 0x85, 0xb0, 0x01, 0x00, 0x00, 0xff, 0x6e, 0x67, 0xd7, 0xed, 0x86, 0xcf, 0x15, 0xd7, 0xd7, 0xa8, 0x7f, 0x65, 0x87, 0x9a, 0x39, 0xde, 0x93, 0x86, 0x11, 0x5b, 0x8b, 0x10, 0x8c, 0x12, 0x27, 0x81, 0x64, 0x32, 0x23, 0x38, 0x4a, 0xa9, 0x2a, 0x7f, 0xee, 0x5e, 0x65, 0xa0, 0xcc, 0x70, 0x50, 0x24, 0x5d, 0xe8, 0x97, 0x0c, 0xad, 0xa8, 0xb6, 0x31, 0x81, 0xc3, 0x3c, 0x6f, 0x71, 0x1f, 0xd9, 0xff, 0xb2, 0xff, 0xd0, 0xff, 0x09, 0xfd, 0x66, 0x8d, 0x3c, 0x46, 0xbb, 0xa9, 0xe5, 0x6d, 0x6f, 0x65, 0x42, 0x79, 0x2a, 0x1e, 0x32, 0x3b, 0xf7, 0xf0, 0x7b, 0x7d, 0xfa, 0x00, 0x43, 0xc0, 0xa4, 0x80, 0x9f, 0xc0, 0xa7, 0x00, 0x19, 0xcf, 0xb5, 0x68, 0xb7, 0xe7, 0x55, 0x97, 0x5c, 0xf5, 0x38, 0xca, 0xcd, 0x4f, 0xb8, 0xfb, 0xfb, 0x82, 0xcb, 0x3a, 0xed, 0xe5, 0x15, 0x93, 0x17, 0xef, 0x00, 0xef, 0x00, 0x1f, 0x00, 0x7f, 0x01, 0xe7, 0xc3, 0xad, 0xee, 0x50, 0x2a, 0x29, 0x9b, 0x33, 0x59, 0x9c, 0xc5, 0x7f, 0x2b, 0x06, 0x7b, 0xbf, 0x4a, 0x51, 0xa4, 0xa4, 0x95, 0x80, 0xb3, 0xa0, 0x87, 0x00, 0xdf, 0x00, 0x5a, 0x00, 0x8e, 0x72, 0x24, 0xe9, 0x36, 0x94, 0x61, 0xb2, 0x55, 0x2a, 0xd2, 0x02, 0x0c, 0x4b, 0xdf, 0x4d, 0x72, 0x30, 0x01, 0x6f, 0x06, 0xe2, 0x97, 0x81, 0x97, 0xa2, 0x97, 0xc4, 0x3f, 0xe1, 0x87, 0xf4, 0x0f, 0xcd, 0x5f, 0xc6, 0x0f, 0xaf, 0x1e, 0x42, 0x6a, 0x81, 0xcc, 0x45, 0x1c, 0x44, 0x27, 0x72, 0x02, 0x19, 0xa4, 0xf7, 0xe9, 0xab, 0x5c, 0x94, 0xaf, 0xd4, 0x44, 0x80, 0x80, 0x40, 0x5d, 0xc0, 0x8c, 0xab, 0x01, 0xc2, 0x02, 0x5a, 0x01, 0xaf, 0x01, 0xed, 0xa0, 0xe0, 0x7e, 0x44, 0xdf, 0x6b, 0xf1, 0x2f, 0x36, 0x66, 0x2b, 0xd0, 0x21, 0x05, 0x99, 0xcf, 0x3b, 0x77, 0xf6, 0x9f, 0x85, 0x5f, 0xe6, 0x04, 0x43, 0x37, 0x62, 0xd6, 0xfd, 0xba, 0x13, 0x82, 0x8c, 0x90, 0x18, 0xc2, 0xd5, 0x37, 0xaa, 0x57, 0x19, 0x7f, 0x2a, 0xdf, 0x34, 0x8f, 0xf6, 0x8f, 0x62, 0xcf, 0x8c, 0x1f, 0x1c, 0x00, 0x2e, 0x58, 0xe9, 0xf2, 0x9f, 0x83, 0x82, 0xa7, 0x95, 0x3c, 0xf8, 0x9e, 0x1b, 0x87, 0x4c, 0x20, 0xd9, 0x5e, 0x87, 0xc0, 0xb6, 0xd8, 0xc1, 0xfd, 0xc7, 0xff, 0xb6, 0xff, 0x27, 0xff, 0x6b, 0xff, 0x10, 0x09, 0x43, 0xbc, 0x93, 0x28, 0x05, 0x1e, 0xf4, 0x50, 0x84, 0x81, 0x7c, 0xb4, 0x3f, 0xf4, 0x00, 0x2d, 0x01, 0x2d, 0xd6, 0x05, 0x02, 0x91, 0x7b, 0x65, 0x3f, 0xc1, 0x7f, 0xd2, 0x7f, 0x80, 0xff, 0x2f, 0x01, 0x55, 0x04, 0xb7, 0xc0, 0xe6, 0x7a, 0x7a, 0x21, 0x7b, 0x34, 0xc1, 0x41, 0xe8, 0x30, 0xd9, 0x28, 0x6d, 0x49, 0xff, 0xe7, 0x73, 0x80, 0xb1, 0x8a, 0x73, 0x24, 0xf3, 0x03, 0x5f, 0x00, 0x7e, 0xf6, 0xc5, 0xa7, 0x30, 0x52, 0xcc, 0xb3, 0x2b, 0xfe, 0x9f, 0x24, 0xef, 0x4c, 0xaf, 0x5d, 0xf7, 0xe1, 0x1f, 0x4f, 0x86, 0xdd, 0x80, 0xb2, 0x80, 0xca, 0x80, 0x27, 0x00, 0x17, 0x80, 0x77, 0xc4, 0x42, 0x28, 0x49, 0xb4, 0x39, 0x21, 0x5c, 0x9f, 0x49, 0x3d, 0x93, 0x42, 0xa3, 0xa1, 0x12, 0x61, 0xe3, 0x01, 0x9e, 0x0b, 0x9c, 0xbf, 0x05, 0x4f, 0x52, 0xff, 0xa0, 0x7f, 0x22, 0xff, 0xe5, 0x70, 0x32, 0xb0, 0x0b, 0xd0, 0x91, 0x84, 0x24, 0x8c, 0x01, 0xac, 0x13, 0x5f, 0x5e, 0xe3, 0x0f, 0x7f, 0xf7, 0x5b, 0xcb, 0xff, 0xbb, 0xef, 0xee, 0x84, 0xde, 0x10, 0x25, 0x90, 0x96, 0x01, 0xc1, 0x04, 0xfd, 0xa0, 0x8f, 0x54, 0xfe, 0x15, 0x07, 0x05, 0x9e, 0x32, 0x6f, 0x9d, 0x8a, 0xcc, 0xd9, 0x08, 0xda, 0x2c, 0xd6, 0x14, 0xbd, 0x4e, 0x6e, 0xce, 0x22, 0x66, 0xb6, 0x01, 0xaf, 0x80, 0xeb, 0xae, 0xa7, 0xca, 0x68, 0x2e, 0x7a, 0x72, 0xe2, 0xca, 0x2f, 0xd7, 0xa9, 0x18, 0xa1, 0x27, 0x8b, 0x7d, 0x5b, 0x26, 0xbf, 0x16, 0x5a, 0x4e, 0xe8, 0x07, 0x12, 0x07, 0xf8, 0x07, 0x50, 0x03, 0x70, 0x02, 0x60, 0xe4, 0x03, 0x3d, 0x81, 0xc8, 0xc2, 0x8a, 0x00, 0x4b, 0x82, 0xa7, 0x61, 0xdb, 0x57, 0xef, 0x6f, 0x4f, 0x0d, 0xb7, 0x87, 0x27, 0x74, 0x35, 0xbd, 0xfe, 0xd5, 0xff, 0xdf, 0xd7, 0xfa, 0x60, 0x31, 0x8f, 0x8e, 0x28, 0xc5, 0xa2, 0x04, 0x36, 0xb5, 0x5c, 0x34, 0xda, 0x39, 0x80, 0x85, 0xa1, 0x12, 0x95, 0x68, 0x0f, 0x6d, 0x37, 0xab, 0x3f, 0x69, 0xbf, 0x36, 0x3f, 0x40, 0x3f, 0x44, 0x8a, 0x60, 0xa2, 0xa3, 0x9d, 0x1c, 0xcb, 0x28, 0xb5, 0xbe, 0xa8, 0xc8, 0x64, 0x0d, 0x29, 0x29, 0x40, 0x61, 0x13, 0x73, 0x9f, 0x6e, 0x6f, 0x85, 0x5f, 0x36, 0x1f, 0x98, 0x1f, 0x0a, 0xdf, 0x4c, 0x28, 0x20, 0x99, 0x49, 0x1e, 0x62, 0x6b, 0x97, 0xcd, 0xb3, 0xa8, 0xe9, 0x8c, 0xf9, 0x30, 0xec, 0x86, 0xf3, 0xff, 0xf0, 0x4a, 0xf1, 0xd4, 0xe4, 0xa5, 0xd8, 0x35, 0xf1, 0xc8, 0xe6, 0x78, 0xc2, 0xd7, 0x80, 0xdb, 0x41, 0x51, 0x15, 0xb2, 0x93, 0xca, 0xc3, 0x99, 0xb8, 0x8a, 0xa9, 0x4b, 0x46, 0xf1, 0xae, 0x92, 0x1f, 0x77, 0x59, 0xf7, 0x88, 0x7f, 0x23, 0xff, 0x02, 0x7f, 0x00, 0xff, 0x01, 0xad, 0x5c, 0x97, 0xc2, 0xa4, 0xaf, 0xd8, 0xfd, 0x24, 0x48, 0x1d, 0xf0, 0x7f, 0x10, 0x65, 0x54, 0x78, 0xac, 0x8c, 0xa0, 0x50, 0x95, 0x7b, 0x70, 0x8e, 0xf6, 0x88, 0xff, 0x4c, 0xff, 0xfd, 0xff, 0x39, 0xc0, 0x2e, 0x38, 0x32, 0xe0, 0x2a, 0x7c, 0xfd, 0xb6, 0x9f, 0x1d, 0x3d, 0xff, 0x64, 0x95, 0xc0, 0x2c, 0x7c, 0x46, 0xfb, 0xf2, 0x0b, 0x24, 0x96, 0x7d, 0x3d, 0xe7, 0x49, 0x3e, 0xf7, 0xae, 0x0a, 0xdc, 0xfd, 0x87, 0xc1, 0x4f, 0x0b, 0x4c, 0x53, 0xf3, 0x7d, 0xa0, 0x57, 0xf0, 0x3e, 0xf0, 0x04, 0xe0, 0x34, 0x90, 0x5e, 0x5b, 0xf3, 0xc6, 0xd2, 0x08, 0xa8, 0xbe, 0x24, 0xdf, 0x18, 0x2a, 0xe5, 0xfa, 0x8a, 0xeb, 0x5e, 0x78, 0xbe, 0xf9, 0x22, 0x59, 0xc6, 0x05, 0xce, 0x0d, 0x41, 0x05, 0xcb, 0x03, 0x5f, 0x0f, 0xab, 0x04, 0x92, 0x0b, 0x38, 0x0a, 0x41, 0x4e, 0xcf, 0x57, 0x77, 0xee, 0xf3, 0xeb, 0xc4, 0xea, 0xfe, 0x34, 0x8d, 0x1a, 0x2b, 0xe6, 0x99, 0xef, 0xfb, 0xbc, 0x7b, 0x2a, 0x8a, 0xd2, 0xf0, 0xd8, 0xd8, 0x05, 0xc0, 0xdd, 0xc0, 0xf7, 0xc0, 0xb3, 0x80, 0x08, 0x00, 0x77, 0x27, 0xb6, 0xb7, 0x99, 0x7f, 0x7c, 0xc2, 0x11, 0x23, 0x87, 0x53, 0xfe, 0x68, 0x23, 0x90, 0x92, 0xb0, 0xf0, 0xd8, 0xa6, 0xee, 0x19, 0xfe, 0x8b, 0xf1, 0xed, 0xf2, 0x0f, 0xeb, 0xd3, 0xf2, 0xa7, 0x59, 0x97, 0x0c, 0x50, 0x90, 0xae, 0xb7, 0xa5, 0xf1, 0x02, 0x59, 0xcf, 0x1a, 0xdc, 0x6e, 0x58, 0x08, 0x21, 0x80, 0x0e, 0x80, 0x55, 0x2c, 0x97, 0xcd, 0x0f, 0xef, 0x3f, 0xff, 0x5f, 0xff, 0x7f, 0x6f, 0x28, 0x7f, 0xca, 0xef, 0xc9, 0x5f, 0x2e, 0xcf, 0xe2, 0x47, 0x3c, 0x6b, 0x59, 0x67, 0xa3, 0xda, 0x00, 0x28, 0x05, 0x26, 0x10, 0x71, 0x00, 0xe5, 0xc9, 0x7b, 0x71, 0x6a, 0x31, 0x4d, 0x01, 0xe1, 0x02, 0xc8, 0x00, 0xb5, 0x46, 0xb3, 0x1a, 0x23, 0xd3, 0x42, 0xc8, 0x38, 0xfd, 0x75, 0xf7, 0x24, 0xf8, 0x58, 0xf4, 0x4d, 0xfa, 0x99, 0xfc, 0xe8, 0xfc, 0x65, 0x21, 0x62, 0x80, 0x29, 0x00, 0xa4, 0xe5, 0xe3, 0xa5, 0xe6, 0x7a, 0x28, 0x42, 0x8b, 0xe1, 0xa7, 0xc1, 0xe3, 0x81, 0x15, 0x82, 0xc6, 0xc4, 0xc3, 0x9f, 0x78, 0xd0, 0xc4, 0x3d, 0xe5, 0xb7, 0xdf, 0x43, 0x44, 0x13, 0x01, 0x01, 0x3a, 0x1a, 0x59, 0xc5, 0x2c, 0xb5, 0xa2, 0x2d, 0x11, 0x41, 0x96, 0xaf, 0xb8, 0xd8, 0x2b, 0x48, 0xf3, 0x14, 0x09, 0x36, 0xd4, 0x2c, 0xa3, 0x07, 0xe0, 0x7f, 0xc4, 0x3f, 0xd0, 0x3f, 0xf6, 0x7f, 0xcc, 0x51, 0x0d, 0x27, 0xa4, 0x8c, 0x8b, 0x31, 0x58, 0x49, 0xf1, 0xbc, 0xb2, 0xd6, 0x95, 0x14, 0x8b, 0x22, 0x38, 0x10, 0x84, 0x2e, 0xbd, 0x46, 0x92, 0xff, 0x85, 0xff, 0xe1, 0xff, 0x8e, 0xff, 0x8b, 0x0e, 0x52, 0x84, 0xfa, 0xfa, 0xcc, 0x66, 0xc2, 0xac, 0x16, 0x09, 0x4c, 0x5b, 0x8d, 0x20, 0xf3, 0x97, 0x7d, 0x80, 0x64, 0xba, 0x00, 0xfe, 0x00, 0xfe, 0x80, 0xff, 0x00, 0xff, 0x00, 0xfe, 0xc0, 0xbb, 0x60, 0x82, 0x40, 0xe5, 0x9c, 0x33, 0xc7, 0xcc, 0xe6, 0x1a, 0x7b, 0xec, 0x5a, 0x91, 0x16, 0x24, 0xe2, 0x32, 0x91, 0x93, 0x6a, 0x37, 0x17, 0xfd, 0x8b, 0xfc, 0x59, 0xff, 0xd4, 0xff, 0x9f, 0x3f, 0x87, 0xd4, 0x3f, 0xbd, 0xff, 0x26, 0xcb, 0x79, 0x27, 0xe8, 0x64, 0xde, 0xf8, 0x64, 0x04, 0x2a, 0x40, 0xea, 0x44, 0x0c, 0x05, 0x21, 0x9f, 0x75, 0xff, 0xec, 0xfd, 0xa2, 0x7f, 0x09, 0x90, 0xff, 0x12, 0xce, 0x39, 0x5e, 0x37, 0x4f, 0x00, 0xcf, 0x1d, 0x9d, 0xdc, 0xea, 0xbe, 0xd6, 0x18, 0xbd, 0x06, 0x0c, 0xcd, 0xbc, 0xc4, 0xbc, 0xa5, 0xce, 0xf2, 0xc4, 0x63, 0xbe, 0xac, 0xe7, 0x9f, 0x3e, 0xe1, 0x36, 0xe7, 0x79, 0xff, 0x7e, 0x12, 0x1f, 0x4b, 0xbf, 0x9a, 0xc4, 0xf3, 0x16, 0xa8, 0xc3, 0xcc, 0x49, 0x60, 0xa1, 0x40, 0x9a, 0x82, 0x29, 0xc8, 0xa1, 0xe0, 0xf7, 0x84, 0x4f, 0x40, 0x50, 0x62, 0x80, 0x08, 0x6c, 0x80, 0x82, 0x56, 0x00, 0x79, 0xf4, 0x7b, 0xab, 0x65, 0xd8, 0xe7, 0xf0, 0xbf, 0x5c, 0x65, 0xe3, 0x5b, 0xb7, 0x7f, 0xdb, 0xfb, 0xba, 0xff, 0xf3, 0x83, 0xff, 0x10, 0x02, 0x18, 0x00, 0xd5, 0xf1, 0x62, 0x13, 0x45, 0x02, 0xf5, 0x10, 0x76, 0xb1, 0x93, 0xcb, 0xff, 0x16, 0xc3, 0x37, 0x4d, 0xe5, 0xc5, 0xd2, 0x55, 0xe1, 0xfd, 0xf7, 0x7b, 0xd1, 0x4b, 0xa6, 0x38, 0x05, 0xd5, 0x16, 0x4a, 0xd6, 0xa1, 0x30, 0x75, 0xde, 0xb3, 0x91, 0x0d, 0x1a, 0x53, 0x80, 0xba, 0xad, 0x41, 0xbb, 0xae, 0x27, 0x90, 0x2f, 0xc9, 0x3f, 0xce, 0x0f, 0xe5, 0x1f, 0xd2, 0x8f, 0x69, 0x60, 0x00, 0x97, 0xb4, 0x55, 0x1b, 0x09, 0xb7, 0x9a, 0x96, 0x72, 0xe2, 0x58, 0x90, 0x64, 0x40, 0x09, 0xf0, 0x61, 0xa0, 0x34, 0x60, 0xbd, 0xf9, 0x9b, 0xfb, 0x41, 0xfe, 0x0b, 0xff, 0xc3, 0xb0, 0xb2, 0xb8, 0x10, 0x10, 0xed, 0xaf, 0x8f, 0x75, 0x48, 0xc4, 0x32, 0x30, 0x25, 0x8f, 0xbb, 0x2b, 0x96, 0xc7, 0x58, 0x0f, 0x8f, 0x1f, 0x2a, 0x7f, 0xcd, 0x0f, 0x8b, 0x1f, 0x68, 0x1f, 0xd0, 0x40, 0xe1, 0x81, 0x15, 0xed, 0x50, 0xb1, 0x80, 0xa6, 0x35, 0x22, 0x4e, 0x1d, 0xc3, 0xc1, 0x84, 0xe6, 0x4c, 0xc5, 0xd4, 0xc1, 0xc5, 0x41, 0x9a, 0x4d, 0xc2, 0x57, 0xe0, 0x17, 0xd1, 0x5f, 0xc7, 0x53, 0xdc, 0x92, 0x95, 0xd6, 0x12, 0x72, 0xc6, 0xac, 0xda, 0x48, 0x33, 0x75, 0xae, 0x07, 0x24, 0x07, 0x5b, 0x9f, 0x94, 0x1f, 0x37, 0x7f, 0xb5, 0xbf, 0x52, 0x0f, 0x52, 0x1f, 0x9c, 0x5f, 0x54, 0x00, 0x65, 0x80, 0xce, 0xc0, 0x0c, 0x02, 0xae, 0x09, 0x47, 0x63, 0xaf, 0xa5, 0xb5, 0xdd, 0x21, 0xcd, 0xec, 0xb0, 0x32, 0x32, 0xce, 0xb1, 0xb7, 0xe4, 0xf3, 0xff, 0xf9, 0xff, 0xff, 0xff, 0xfb, 0x89, 0x58, 0x72, 0x92, 0x9f, 0xc5, 0x72, 0x5c, 0x90, 0x96, 0x38, 0x1e, 0x92, 0xc1, 0xa3, 0x4b, 0x13, 0xdc, 0x17, 0x12, 0x7f, 0xa7, 0x3f, 0x7a, 0x9f, 0x15, 0x1f, 0x66, 0x1f, 0xb2, 0x3f, 0x23, 0xf6, 0x12, 0xd8, 0xb0, 0x95, 0x66, 0xe7, 0xf6, 0x90, 0xae, 0x8f, 0x51, 0x8b, 0x8a, 0xff, 0x74, 0x1f, 0x8f, 0xbf, 0xe5, 0x7f, 0x7c, 0xfb, 0x88, 0x88, 0xc7, 0x00, 0x45, 0x00, 0xef, 0x00, 0x5e, 0x0e, 0x64, 0x3e, 0x30, 0x05, 0xb0, 0x0e, 0x34, 0x14, 0xcc, 0xf5, 0xec, 0xd0, 0x43, 0x77, 0x22, 0x37, 0x78, 0x7f, 0x73, 0x9f, 0x03, 0x5f, 0x7d, 0x1f, 0xbd, 0x9f, 0x50, 0x5b, 0xcc, 0xcf, 0xd3, 0x76, 0x07, 0x1d, 0x01, 0x9d, 0x0f, 0xb9, 0x0f, 0x42, 0x2f, 0x5f, 0xbe, 0xcd, 0xf5, 0xa7, 0x3e, 0xaa, 0x6e, 0x5e, 0x5a, 0x9f, 0xbe, 0xc4, 0x49, 0x9a, 0x7d, 0x35, 0xcd, 0x5b, 0x1b, 0xff, 0xed, 0x44, 0xb1, 0x86, 0x15, 0x69, 0x92, 0x62, 0x2a, 0xae, 0xba, 0xe5, 0x26, 0x02, 0x46, 0x96, 0xc3, 0xc4, 0xb8, 0x6d, 0x41, 0x98, 0xe9, 0x34, 0x00, 0x45, 0xe6, 0xc9, 0xff, 0xcb, 0xff, 0xa8, 0xff, 0x35, 0xd9, 0xfd, 0xd6, 0x93, 0x1a, 0xe4, 0x72, 0x63, 0xf3, 0x2f, 0x08, 0xf5, 0x7c, 0xce, 0x64, 0x89, 0x8b, 0x91, 0xff, 0xfb, 0xdd, 0x32, 0x32, 0x7d, 0x42, 0x2f, 0x00, 0x0c, 0x00, 0x18, 0x00, 0x01, 0x18, 0xbd, 0x4e, 0x52, 0x90, 0xe4, 0x2d, 0xc6, 0x24, 0xb1, 0xca, 0x41, 0xf0, 0x76, 0xe6, 0xb4, 0xf4, 0x34, 0xf0, 0xca, 0xf9, 0x32, 0xf8, 0x62, 0xf0, 0xa4, 0x82, 0x7c, 0x02, 0xa5, 0x40, 0x38, 0xbd, 0x5d, 0x83, 0x30, 0xd6, 0x54, 0x18, 0xf7, 0xb1, 0xc4, 0x75, 0x2f, 0x0f, 0x02, 0xd2, 0x39, 0x95, 0xe3, 0xb1, 0xaf, 0xbd, 0x1f, 0x5e, 0x7f, 0xc3, 0x7f, 0x04, 0x4f, 0x00, 0x04, 0x00, 0xcb, 0xfb, 0xd3, 0xd8, 0xf7, 0xe3, 0x17, 0x6e, 0x29, 0x17, 0x27, 0x0f, 0x71, 0x13, 0x6a, 0x06, 0x1a, 0x0f, 0xfe, 0x05, 0x12, 0x59, 0x0b, 0xaf, 0xb6, 0xbf, 0x17, 0xe5, 0xbf, 0xb2, 0x75, 0xf7, 0x6d, 0x34, 0xcd, 0x8f, 0x25, 0xd2, 0x31, 0xbe, 0x7f, 0xf3, 0xe0, 0x02, 0x43, 0x3b, 0xf8, 0x81, 0x2f, 0xd5, 0x35, 0xfd, 0x17, 0xf9, 0x0f, 0xfc, 0x0e, 0xf4, 0x05, 0xe0, 0x06, 0x98, 0x0b, 0x40, 0x7d, 0xad, 0x54, 0xff, 0x54, 0xe2, 0xb6, 0x4a, 0xeb, 0x9a, 0x9d, 0x6e, 0x4b, 0xb4, 0xf2, 0x93, 0x25, 0xf8, 0xcc, 0x5f, 0xef, 0xfa, 0x63, 0x8d, 0xcf, 0x00, 0xa8, 0x00, 0xf6, 0x00, 0xbc, 0x00, 0x00, 0x65, 0xb0, 0x57, 0x30, 0xa1, 0xa8, 0x6c, 0x3c, 0x9c, 0xfa, 0x60, 0x36, 0x0b, 0x82, 0x3e, 0x31, 0x09, 0x56, 0x68, 0x99, 0xf9, 0x9c, 0xfa, 0xb6, 0xfc, 0xf4, 0xfc, 0x10, 0xfe, 0x04, 0xfe, 0x47, 0xa5, 0xd7, 0xf7, 0xdc, 0x01, 0xc5, 0xae, 0xda, 0xf6, 0x13, 0x64, 0xe3, 0xa6, 0x67, 0x70, 0xfb, 0x69, 0x35, 0xbf, 0x4a, 0x1a, 0xb5, 0x17, 0xe5, 0x0a, 0xa0, 0x03, 0x40, 0x03, 0xc0, 0x07, 0xe9, 0xf0, 0x84, 0xfd, 0x3b, 0xe5, 0xcb, 0x21, 0x30, 0x87, 0x9d, 0xdd, 0x5d, 0x96, 0xfe, 0xc4, 0x6c, 0x5c, 0xc0, 0xd2, 0x00, 0x9b, 0x80, 0x3b, 0x80, 0x08, 0xc0, 0x1b, 0x40, 0x36, 0x00, 0x9f, 0x1f, 0x40, 0x13, 0xd4, 0x73, 0xf9, 0x1c, 0x7c, 0x94, 0xf8, 0x1e, 0xa0, 0x74, 0x83, 0xcf, 0x47, 0xb2, 0x30, 0x1a, 0x10, 0x13, 0x62, 0x23, 0x54, 0x56, 0x6a, 0xdd, 0xb5, 0xbb, 0xf7, 0x37, 0xff, 0x5b, 0xfa, 0x5c, 0x62, 0x72, 0x43, 0x60, 0x3a, 0x13, 0x4d, 0x94, 0x3f, 0xaf, 0x70, 0xbf, 0xa8, 0x7f, 0x14, 0x7f, 0xe6, 0x3f, 0x65, 0x4b, 0x7b, 0xc7, 0x0c, 0x80, 0x12, 0x00, 0xdf, 0x80, 0xd4, 0x68, 0xa9, 0x83, 0x5d, 0xff, 0xec, 0x7b, 0xdb, 0xa5, 0x89, 0xd2, 0xca, 0x07, 0xb1, 0x68, 0x3b, 0x5f, 0xf9, 0xcc, 0xbd, 0xf7, 0x25, 0x20, 0x03, 0xe5, 0x00, 0x2d, 0x00, 0xfb, 0x00, 0xae, 0x00, 0xa8, 0x0a, 0xe0, 0xaa, 0x84, 0x36, 0xcf, 0x0f, 0xa8, 0x0a, 0x38, 0x12, 0x19, 0x3f, 0xa8, 0xe9, 0xe1, 0x7d, 0xc4, 0xcd, 0xc2, 0xd8, 0xf6, 0xff, 0xfd, 0xc2, 0x7e, 0x4f, 0xff, 0xc3, 0xff, 0xd1, 0x36, 0xdd, 0x7e, 0xe3, 0xa1, 0x1d, 0x3b, 0xfb, 0x27, 0x6d, 0x46, 0xc2, 0xff, 0xa7, 0xdc, 0x89, 0x38, 0xfe, 0x1d, 0x76, 0x64, 0x72, 0xe8, 0xed, 0xe0, 0x03, 0xe0, 0x0f, 0xe0, 0x67, 0xf0, 0x2f, 0x62, 0xfa, 0x62, 0xf1, 0x3f, 0xf8, 0xb5, 0xfe, 0x54, 0x79, 0x68, 0x09, 0xc7, 0x4b, 0x31, 0x62, 0x5a, 0x04, 0x95, 0x3f, 0x6f, 0xf4, 0xc3, 0x67, 0xe0, 0x25, 0x40, 0x58, 0x40, 0xc8, 0x00, 0x1f, 0x3b, 0x29, 0x99, 0xa5, 0xbc, 0x35, 0x46, 0xf9, 0x90, 0x8a, 0x07, 0x57, 0x65, 0x32, 0xfc, 0x11, 0x2b, 0x95, 0xd6, 0xf1, 0x46, 0xe7, 0xc7, 0xf0, 0x21, 0xe3, 0x41, 0xfa, 0x00, 0xff, 0x00, 0xfa, 0x23, 0xf5, 0x4a, 0xfc, 0x97, 0xb2, 0xdc, 0x93, 0xe1, 0x81, 0x61, 0x0b, 0x4a, 0x11, 0x0f, 0x07, 0xb7, 0x0b, 0x96, 0x03, 0xc1, 0x1a, 0x65, 0x18, 0x55, 0xc6, 0x32, 0x76, 0x6c, 0xff, 0xb8, 0xff, 0x49, 0xee, 0x38, 0x3f, 0x06, 0xbe, 0x80, 0x1f, 0x4c, 0xc6, 0xa4, 0xfd, 0x4b, 0x7d, 0x41, 0x2e, 0x2c, 0x8c, 0xe8, 0xea, 0x06, 0x7c, 0x26, 0x1c, 0x30, 0xfe, 0x88, 0x51, 0x93, 0xef, 0x6c, 0xff, 0xff, 0xd0, 0x48, 0x9c, 0xe3, 0xdb, 0x66, 0xcd, 0x31, 0x07, 0x2f, 0xba, 0xef, 0x75, 0x66, 0x8c, 0x79, 0x76, 0x2a, 0xb9, 0xe0, 0x90, 0xc0, 0x87, 0xc0, 0x33, 0xc0, 0x3f, 0xc0, 0x4f, 0x80, 0x3f, 0x5d, 0x35, 0x62, 0x96, 0x12, 0x26, 0xed, 0xc5, 0x94, 0x84, 0xb3, 0xb8, 0xdd, 0xff, 0x21, 0xe0, 0xe5, 0xf5, 0x30, 0xe3, 0xd3, 0xe0, 0x7c, 0xc8, 0x4b, 0x80, 0x07, 0x20, 0x0b, 0xc0, 0x3f, 0xa0, 0xfb, 0xde, 0x10, 0x92, 0xf3, 0x23, 0x32, 0x62, 0x8c, 0x5d, 0xa5, 0xfc, 0xad, 0x14, 0xc4, 0xb4, 0x3d, 0x01, 0x89, 0x1f, 0xe1, 0x05, 0xd6, 0x0b, 0xf5, 0x0f, 0xc2, 0x1f, 0xc9, 0x5f, 0xe1, 0xbf, 0x24, 0x85, 0xa9, 0x02, 0xca, 0x90, 0x03, 0xa8, 0x7a, 0x47, 0x43, 0xef, 0xb1, 0x14, 0xd1, 0x37, 0x26, 0x46, 0x87, 0x00, 0x00, 0xc5, 0x81, 0x4b, 0x07, 0x58, 0xef, 0x50, 0xff, 0x01, 0xff, 0xfb, 0x5f, 0xf7, 0x47, 0x7d, 0x57, 0xb0, 0x07, 0x0b, 0xf5, 0x55, 0x09, 0x1e, 0xd9, 0x06, 0x15, 0x0e, 0xf0, 0xcc, 0xa5, 0x79, 0xea, 0xf4, 0x3c, 0x12, 0x8b, 0xf4, 0xdc, 0x0d, 0x56, 0x33, 0x02, 0xaf, 0x00, 0x25, 0x04, 0x8d, 0x00, 0x8f, 0x87, 0x93, 0x24, 0x88, 0x11, 0xbf, 0xbd, 0xfe, 0x11, 0x79, 0xaf, 0xfc, 0xda, 0xf1, 0x7d, 0xfc, 0x22, 0xa1, 0x53, 0xef, 0xa8, 0xac, 0xa0, 0xfe, 0x00, 0xfc, 0xea, 0xfb, 0x5c, 0x90, 0x4a, 0x1b, 0xb2, 0xf6, 0x53, 0x33, 0x1d, 0x51, 0x3f, 0x65, 0xeb, 0xcb, 0x91, 0xf6, 0x10, 0x9e, 0xb0, 0xa3, 0xf0, 0x44, 0xe0, 0xc7, 0x90, 0xe6, 0xc0, 0xc9, 0xf0, 0xe6, 0xf3, 0x81, 0x75, 0xc3, 0xcb, 0x98, 0xba, 0x40, 0xe3, 0x40, 0xe6, 0xf2, 0x4a, 0xc9, 0xdb, 0x03, 0x83, 0xbe, 0xf3, 0xa5, 0xff, 0x6d, 0xdb, 0x43, 0xe5, 0x08, 0x20, 0xb0, 0xc0, 0x12, 0x80, 0x19, 0xef, 0x89, 0x47, 0xd6, 0xb3, 0x4d, 0x0f, 0x6b, 0x92, 0xd1, 0x39, 0xeb, 0x56, 0xf6, 0x6a, 0x57, 0x5a, 0xc1, 0xca, 0x0d, 0xd4, 0x04, 0x87, 0x03, 0x86, 0x01, 0x97, 0x06, 0xff, 0x05, 0xdb, 0x01, 0x0e, 0x53, 0x0c, 0xfd, 0xfc, 0x88, 0xa1, 0xb8, 0x86, 0x17, 0x6e, 0x02, 0xe7, 0x05, 0x00, 0x07, 0x2a, 0x05, 0x7e, 0x08, 0x8b, 0x07, 0x2c, 0xff, 0xa1, 0x68, 0x95, 0xfe, 0x3c, 0xff, 0x0c, 0xff, 0x6e, 0x96, 0xc5, 0x73, 0xb5, 0x83, 0x84, 0xfe, 0x17, 0xf3, 0x6d, 0x10, 0x9d, 0x53, 0x7a, 0x50, 0xd1, 0x77, 0x98, 0xde, 0xe0, 0x0f, 0xf0, 0x3f, 0xe0, 0x3f, 0x80, 0x12, 0xa0, 0xd5, 0xc0, 0x28, 0xd6, 0x1f, 0xb9, 0xcf, 0xc8, 0xdf, 0x81, 0xa7, 0xb6, 0x82, 0x07, 0x01, 0xc5, 0x19, 0x0c, 0x06, 0xab, 0x64, 0xbc, 0xbf, 0x54, 0x1c, 0x26, 0x06, 0xe9, 0xfa, 0x06, 0xa3, 0x52, 0x63, 0x74, 0x20, 0x77, 0x8f, 0xf1, 0xaa, 0x09, 0xea, 0xdd, 0x0e, 0x9b, 0xe0, 0x41, 0x3c, 0xf6, 0xfe, 0xf3, 0xd1, 0xcc, 0xa3, 0xe2, 0x07, 0xed, 0x09, 0xff, 0x03, 0xe6, 0x0d, 0x21, 0x0a, 0xca, 0x03, 0xa3, 0x01, 0x59, 0xfe, 0x05, 0xfe, 0xf8, 0xfe, 0x1b, 0xbe, 0x92, 0x3c, 0xe7, 0x6c, 0x29, 0xa2, 0x74, 0x80, 0x16, 0x60, 0xf8, 0xa0, 0x93, 0xd8, 0x6e, 0x67, 0x82, 0xa5, 0x55, 0xfc, 0xb7, 0x9f, 0xd0, 0x0a, 0x32, 0xc0, 0x28, 0xc0, 0x04, 0xc0, 0xbd, 0xa9, 0x9b, 0xac, 0x60, 0x6c, 0x4c, 0x17, 0x51, 0x14, 0x92, 0xd5, 0x83, 0x43, 0xcf, 0x81, 0x07, 0x0c, 0x1f, 0x70, 0x4f, 0xfc, 0x3f, 0xfa, 0xff, 0xfc, 0x31, 0xba, 0x3c, 0x26, 0x22, 0x34, 0x22, 0x06, 0x2e, 0x17, 0xe2, 0x02, 0x98, 0x29, 0x1d, 0x0d, 0x0a, 0x41, 0x85, 0x9d, 0x58, 0xd1, 0x38, 0xf9, 0x51, 0xf9, 0x55, 0xfa, 0x13, 0xf8, 0xe8, 0xf8, 0xe5, 0xe3, 0x09, 0x57, 0xa5, 0x0a, 0x33, 0xb6, 0x93, 0xac, 0x9f, 0xc2, 0xbd, 0x5c, 0x86, 0x53, 0x77, 0xab, 0x62, 0xf9, 0xc0, 0x42, 0x80, 0x48, 0xc0, 0x27, 0x80, 0x31, 0x20, 0xfe, 0xe0, 0x5d, 0xa5, 0xfd, 0xaa, 0x74, 0x1b, 0x0a, 0xc6, 0x74, 0xf0, 0x18, 0x98, 0x03, 0xa9, 0x1e, 0x23, 0x8a, 0x0f, 0x36, 0x57, 0x47, 0x3f, 0xe5, 0x2f, 0x3a, 0x8f, 0x48, 0xa7, 0xde, 0x07, 0x0f, 0x07, 0x51, 0x93, 0x6a, 0x3c, 0xf7, 0xf3, 0xb0, 0xca, 0x19, 0x22, 0x0b, 0x4b, 0xb9, 0xae, 0xa3, 0x6f, 0xfc, 0xe3, 